// Micro Rice Disease Model for Arduino
// Size: 12992 bytes (12.7 KB)
// Classes: 6

#ifndef MICRO_MODEL_H
#define MICRO_MODEL_H

const unsigned char micro_model[] = {
  0x1c, 0x00, 0x00, 0x00, 0x54, 0x46, 0x4c, 0x33, 0x14, 0x00, 0x20, 0x00, 0x1c, 0x00, 0x18, 0x00,
  0x14, 0x00, 0x10, 0x00, 0x0c, 0x00, 0x00, 0x00, 0x08, 0x00, 0x04, 0x00, 0x14, 0x00, 0x00, 0x00,
  0x1c, 0x00, 0x00, 0x00, 0x8c, 0x00, 0x00, 0x00, 0xe4, 0x00, 0x00, 0x00, 0x74, 0x1d, 0x00, 0x00,
  0x84, 0x1d, 0x00, 0x00, 0x18, 0x32, 0x00, 0x00, 0x03, 0x00, 0x00, 0x00, 0x01, 0x00, 0x00, 0x00,
  0x10, 0x00, 0x00, 0x00, 0x00, 0x00, 0x0a, 0x00, 0x10, 0x00, 0x0c, 0x00, 0x08, 0x00, 0x04, 0x00,
  0x0a, 0x00, 0x00, 0x00, 0x0c, 0x00, 0x00, 0x00, 0x1c, 0x00, 0x00, 0x00, 0x38, 0x00, 0x00, 0x00,
  0x0f, 0x00, 0x00, 0x00, 0x73, 0x65, 0x72, 0x76, 0x69, 0x6e, 0x67, 0x5f, 0x64, 0x65, 0x66, 0x61,
  0x75, 0x6c, 0x74, 0x00, 0x01, 0x00, 0x00, 0x00, 0x04, 0x00, 0x00, 0x00, 0x9c, 0xff, 0xff, 0xff,
  0x15, 0x00, 0x00, 0x00, 0x04, 0x00, 0x00, 0x00, 0x07, 0x00, 0x00, 0x00, 0x64, 0x65, 0x6e, 0x73,
  0x65, 0x5f, 0x31, 0x00, 0x01, 0x00, 0x00, 0x00, 0x04, 0x00, 0x00, 0x00, 0x66, 0xe2, 0xff, 0xff,
  0x04, 0x00, 0x00, 0x00, 0x07, 0x00, 0x00, 0x00, 0x69, 0x6e, 0x70, 0x75, 0x74, 0x5f, 0x31, 0x00,
  0x02, 0x00, 0x00, 0x00, 0x34, 0x00, 0x00, 0x00, 0x04, 0x00, 0x00, 0x00, 0xdc, 0xff, 0xff, 0xff,
  0x18, 0x00, 0x00, 0x00, 0x04, 0x00, 0x00, 0x00, 0x13, 0x00, 0x00, 0x00, 0x43, 0x4f, 0x4e, 0x56,
  0x45, 0x52, 0x53, 0x49, 0x4f, 0x4e, 0x5f, 0x4d, 0x45, 0x54, 0x41, 0x44, 0x41, 0x54, 0x41, 0x00,
  0x08, 0x00, 0x0c, 0x00, 0x08, 0x00, 0x04, 0x00, 0x08, 0x00, 0x00, 0x00, 0x17, 0x00, 0x00, 0x00,
  0x04, 0x00, 0x00, 0x00, 0x13, 0x00, 0x00, 0x00, 0x6d, 0x69, 0x6e, 0x5f, 0x72, 0x75, 0x6e, 0x74,
  0x69, 0x6d, 0x65, 0x5f, 0x76, 0x65, 0x72, 0x73, 0x69, 0x6f, 0x6e, 0x00, 0x19, 0x00, 0x00, 0x00,
  0x8c, 0x1c, 0x00, 0x00, 0x84, 0x1c, 0x00, 0x00, 0x6c, 0x1c, 0x00, 0x00, 0x44, 0x1c, 0x00, 0x00,
  0xd4, 0x1b, 0x00, 0x00, 0x84, 0x1b, 0x00, 0x00, 0x74, 0x19, 0x00, 0x00, 0xe4, 0x18, 0x00, 0x00,
  0xd4, 0x06, 0x00, 0x00, 0x84, 0x06, 0x00, 0x00, 0xf4, 0x01, 0x00, 0x00, 0xc4, 0x01, 0x00, 0x00,
  0xdc, 0x00, 0x00, 0x00, 0xd4, 0x00, 0x00, 0x00, 0xcc, 0x00, 0x00, 0x00, 0xc4, 0x00, 0x00, 0x00,
  0xbc, 0x00, 0x00, 0x00, 0xb4, 0x00, 0x00, 0x00, 0xac, 0x00, 0x00, 0x00, 0xa4, 0x00, 0x00, 0x00,
  0x9c, 0x00, 0x00, 0x00, 0x94, 0x00, 0x00, 0x00, 0x8c, 0x00, 0x00, 0x00, 0x6c, 0x00, 0x00, 0x00,
  0x04, 0x00, 0x00, 0x00, 0x3e, 0xe3, 0xff, 0xff, 0x04, 0x00, 0x00, 0x00, 0x58, 0x00, 0x00, 0x00,
  0x0c, 0x00, 0x00, 0x00, 0x08, 0x00, 0x0e, 0x00, 0x08, 0x00, 0x04, 0x00, 0x08, 0x00, 0x00, 0x00,
  0x10, 0x00, 0x00, 0x00, 0x28, 0x00, 0x00, 0x00, 0x00, 0x00, 0x06, 0x00, 0x08, 0x00, 0x04, 0x00,
  0x06, 0x00, 0x00, 0x00, 0x04, 0x00, 0x00, 0x00, 0x01, 0x00, 0x00, 0x00, 0xeb, 0x03, 0x00, 0x00,
  0x00, 0x00, 0x0a, 0x00, 0x10, 0x00, 0x0c, 0x00, 0x08, 0x00, 0x04, 0x00, 0x0a, 0x00, 0x00, 0x00,
  0x02, 0x00, 0x00, 0x00, 0x02, 0x00, 0x00, 0x00, 0x04, 0x00, 0x00, 0x00, 0x06, 0x00, 0x00, 0x00,
  0x32, 0x2e, 0x31, 0x32, 0x2e, 0x30, 0x00, 0x00, 0xa2, 0xe3, 0xff, 0xff, 0x04, 0x00, 0x00, 0x00,
  0x10, 0x00, 0x00, 0x00, 0x31, 0x2e, 0x31, 0x34, 0x2e, 0x30, 0x00, 0x00, 0x00, 0x00, 0x00, 0x00,
  0x00, 0x00, 0x00, 0x00, 0xa4, 0xd0, 0xff, 0xff, 0xa8, 0xd0, 0xff, 0xff, 0xac, 0xd0, 0xff, 0xff,
  0xb0, 0xd0, 0xff, 0xff, 0xb4, 0xd0, 0xff, 0xff, 0xb8, 0xd0, 0xff, 0xff, 0xbc, 0xd0, 0xff, 0xff,
  0xc0, 0xd0, 0xff, 0xff, 0xc4, 0xd0, 0xff, 0xff, 0xc8, 0xd0, 0xff, 0xff, 0xe6, 0xe3, 0xff, 0xff,
  0x04, 0x00, 0x00, 0x00, 0xd8, 0x00, 0x00, 0x00, 0x03, 0x81, 0x1e, 0x70, 0x8e, 0xaa, 0xba, 0x2a,
  0x5f, 0x76, 0xe1, 0xa8, 0x28, 0x0b, 0x87, 0x34, 0x99, 0x0f, 0x11, 0x5e, 0x0a, 0xa9, 0x46, 0x86,
  0x1b, 0xc1, 0x3f, 0xd4, 0x31, 0xc5, 0x19, 0xa7, 0x7f, 0xcb, 0x6d, 0xe0, 0x8c, 0x4a, 0x7a, 0xd9,
  0x18, 0x52, 0x76, 0xc9, 0x7a, 0xac, 0x2a, 0x57, 0xce, 0x91, 0xc6, 0x4e, 0x86, 0xc4, 0xb1, 0xcc,
  0xff, 0x1e, 0x81, 0xd6, 0x17, 0x3a, 0x55, 0xb3, 0x1e, 0x3e, 0x42, 0xc6, 0xfe, 0x21, 0x57, 0xcd,
  0x55, 0x9b, 0xc3, 0x98, 0x77, 0x26, 0xd4, 0x98, 0x4c, 0x91, 0x53, 0x94, 0x93, 0xec, 0xea, 0x09,
  0x6d, 0x23, 0xe0, 0x60, 0x47, 0xd9, 0xd8, 0x98, 0x81, 0x2d, 0x5a, 0x7d, 0x76, 0xe5, 0x29, 0x84,
  0x69, 0xc0, 0xb9, 0x57, 0x7e, 0x82, 0x3e, 0x3e, 0xc1, 0xf5, 0x1b, 0x1f, 0x4e, 0x21, 0x67, 0xda,
  0xb6, 0x66, 0xc1, 0xd2, 0x78, 0x9f, 0x4c, 0x8d, 0x26, 0xc8, 0x8b, 0xe3, 0x9f, 0x4a, 0x81, 0x1b,
  0xc8, 0xe2, 0x2d, 0xe5, 0xe1, 0x82, 0xe4, 0x4c, 0xe9, 0x75, 0xa3, 0x18, 0xe4, 0x06, 0xb7, 0x34,
  0x82, 0x51, 0x7f, 0x42, 0x05, 0xd1, 0x13, 0xb8, 0x6b, 0xb6, 0xc0, 0xec, 0xc9, 0x56, 0x4f, 0x3a,
  0xc2, 0xbf, 0xc2, 0x9d, 0xb4, 0x1a, 0x26, 0xd5, 0x26, 0x66, 0x33, 0x81, 0x45, 0x23, 0x06, 0x43,
  0x56, 0x97, 0x27, 0xe8, 0xaa, 0x3d, 0x43, 0xb5, 0xdf, 0x21, 0x40, 0x6a, 0x8f, 0xd8, 0x4e, 0x85,
  0xd7, 0x34, 0x1a, 0x58, 0xe1, 0xb2, 0xb6, 0x77, 0x59, 0xaf, 0xd5, 0x81, 0x55, 0x3d, 0x0b, 0xb8,
  0xca, 0xe4, 0xff, 0xff, 0x04, 0x00, 0x00, 0x00, 0x20, 0x00, 0x00, 0x00, 0x9e, 0x00, 0x00, 0x00,
  0x0c, 0x02, 0x00, 0x00, 0x6f, 0xfe, 0xff, 0xff, 0x5c, 0xff, 0xff, 0xff, 0xa6, 0x01, 0x00, 0x00,
  0xb6, 0x01, 0x00, 0x00, 0xf3, 0x01, 0x00, 0x00, 0x62, 0x02, 0x00, 0x00, 0xf6, 0xe4, 0xff, 0xff,
  0x04, 0x00, 0x00, 0x00, 0x80, 0x04, 0x00, 0x00, 0x63, 0x76, 0xcb, 0x70, 0xc5, 0xfe, 0xeb, 0x79,
  0x57, 0xd8, 0x46, 0xd1, 0x62, 0xe0, 0xee, 0xd2, 0x0d, 0x7e, 0xfc, 0xde, 0xef, 0xca, 0xec, 0x1b,
  0xf2, 0xff, 0x00, 0x60, 0x04, 0xec, 0x06, 0x72, 0x21, 0x72, 0xb1, 0x22, 0x5a, 0x07, 0x7f, 0x0f,
  0xe2, 0x1e, 0xc0, 0x4c, 0x4f, 0x26, 0x41, 0x1b, 0x20, 0xc3, 0x34, 0x32, 0xd8, 0x2a, 0x75, 0xf8,
  0x4c, 0xfa, 0x2e, 0xb6, 0x3a, 0x41, 0xdd, 0x72, 0x3b, 0x0a, 0xe3, 0x09, 0x3f, 0x78, 0x6b, 0x23,
  0xb7, 0x29, 0x18, 0xd9, 0xb6, 0x08, 0xb6, 0x64, 0x12, 0x05, 0x1f, 0x57, 0xea, 0x15, 0x65, 0x30,
  0xcc, 0xc1, 0x11, 0xc0, 0x6e, 0x2b, 0x6c, 0x3e, 0x48, 0x37, 0x57, 0x17, 0xdd, 0xb9, 0xac, 0x78,
  0x37, 0x40, 0xf3, 0x69, 0xd9, 0x7f, 0xac, 0x77, 0xe2, 0x69, 0x27, 0xed, 0xee, 0xd8, 0x79, 0xee,
  0x0d, 0x60, 0xc1, 0x6b, 0x51, 0x37, 0x10, 0x65, 0x77, 0x0f, 0x77, 0xc5, 0xe8, 0xec, 0xeb, 0x63,
  0xc3, 0x10, 0xed, 0xcf, 0x5f, 0xf0, 0x4d, 0x7a, 0x59, 0xfe, 0x63, 0x2e, 0x37, 0x47, 0x48, 0x01,
  0x16, 0x07, 0x26, 0xb0, 0xd1, 0xe1, 0x53, 0x7d, 0xde, 0x21, 0xb5, 0xb5, 0xfe, 0x5a, 0xec, 0x17,
  0x28, 0x3d, 0xa6, 0x4d, 0x06, 0x10, 0x0e, 0xc8, 0xcd, 0x41, 0x79, 0x14, 0x73, 0x23, 0x0a, 0x67,
  0xaa, 0x73, 0x53, 0xc4, 0xe4, 0x30, 0xdc, 0x4f, 0x0b, 0xe2, 0xb5, 0xd7, 0xdc, 0x2e, 0x4d, 0xdd,
  0x6d, 0xd2, 0xcb, 0xb2, 0x7f, 0x62, 0xc9, 0xf0, 0x46, 0x21, 0x5d, 0x44, 0x1d, 0xf3, 0xfd, 0x1f,
  0xd2, 0x4d, 0x41, 0x67, 0xe7, 0x63, 0xe5, 0xc0, 0xa9, 0x0c, 0x29, 0xe4, 0x66, 0xdc, 0x42, 0x6e,
  0x4c, 0x6d, 0x78, 0x0c, 0x21, 0xd5, 0x07, 0xe8, 0xba, 0x2f, 0x9c, 0x3f, 0x4d, 0x7a, 0x6d, 0x1c,
  0xa1, 0x7f, 0x76, 0x9e, 0x71, 0xcb, 0x0b, 0xa6, 0x9f, 0xd0, 0x31, 0x5b, 0x2a, 0x43, 0x4d, 0xba,
  0xa4, 0x5a, 0xfd, 0x2e, 0xf6, 0x1d, 0x58, 0x76, 0xef, 0x78, 0xcf, 0x56, 0xa9, 0x71, 0x2a, 0x72,
  0x59, 0x0a, 0x9f, 0x0b, 0xee, 0x3e, 0x75, 0xf3, 0xc7, 0x34, 0x3a, 0x7f, 0x2f, 0x2a, 0x4d, 0x6a,
  0x3c, 0x05, 0x19, 0x09, 0x06, 0x3e, 0xce, 0xa7, 0xdf, 0xc1, 0x2d, 0x14, 0x14, 0xbc, 0x4c, 0xeb,
  0x75, 0xf2, 0x9f, 0x5c, 0x42, 0x1f, 0xee, 0xe7, 0x16, 0xbf, 0x20, 0x2d, 0xe7, 0x79, 0x2c, 0x78,
  0x48, 0xf0, 0xde, 0x46, 0x78, 0xf9, 0xbc, 0x41, 0xb1, 0x9e, 0x21, 0x1f, 0x24, 0xc9, 0xe8, 0x5f,
  0x7b, 0x50, 0x64, 0x22, 0xc8, 0xaf, 0x23, 0x11, 0xa3, 0x00, 0xee, 0xdb, 0xb1, 0x6a, 0x7d, 0x69,
  0x1c, 0xb9, 0xda, 0xb1, 0x32, 0xff, 0xa2, 0x15, 0x14, 0x6a, 0x65, 0xcf, 0xe1, 0x5d, 0x61, 0x9b,
  0xfa, 0x91, 0x2c, 0x1a, 0xec, 0xd1, 0x07, 0xe1, 0x3c, 0x69, 0xc2, 0x9a, 0x8b, 0x09, 0x2b, 0x9f,
  0x2f, 0x0d, 0x40, 0xf9, 0x12, 0xe1, 0xbd, 0xd9, 0xc9, 0xfc, 0xf8, 0x4f, 0x31, 0xb0, 0x2f, 0xb1,
  0x40, 0x22, 0x3e, 0xd2, 0x09, 0x52, 0x6d, 0xee, 0x59, 0x90, 0xbd, 0x38, 0xbc, 0x84, 0xee, 0x50,
  0x81, 0x1a, 0x47, 0x07, 0x86, 0x02, 0x8e, 0xef, 0x08, 0x54, 0xb3, 0xfd, 0xbc, 0x3e, 0xa7, 0x1e,
  0xdd, 0x3b, 0x27, 0xf4, 0xea, 0x46, 0x55, 0x67, 0x2c, 0x01, 0x40, 0xc7, 0x36, 0xfc, 0x17, 0x5e,
  0x5f, 0x38, 0xd9, 0xc0, 0x54, 0x23, 0xe9, 0xf3, 0xce, 0x29, 0xdd, 0x7e, 0x14, 0x6a, 0x42, 0xab,
  0xc9, 0xdc, 0xae, 0x21, 0x55, 0x4b, 0x03, 0x56, 0x50, 0x13, 0x1a, 0xa6, 0xb0, 0x29, 0x52, 0x7f,
  0x04, 0x50, 0xe7, 0xda, 0x42, 0x16, 0x25, 0x18, 0x35, 0xc3, 0x12, 0xb0, 0x3a, 0x50, 0xd5, 0xc4,
  0xbf, 0x79, 0x13, 0xb9, 0x89, 0xc7, 0x06, 0x7c, 0x24, 0x94, 0xb9, 0x0f, 0xac, 0x84, 0x8c, 0x48,
  0x98, 0xf4, 0xd5, 0x8f, 0xeb, 0x00, 0xca, 0x17, 0x0d, 0x1f, 0x4d, 0x58, 0xe1, 0xd0, 0x19, 0x06,
  0x86, 0xe2, 0xe9, 0x94, 0x33, 0x88, 0x5c, 0x9e, 0x1c, 0xc8, 0x4a, 0x0b, 0x2f, 0xc3, 0x88, 0xe1,
  0x95, 0x12, 0xc9, 0x3d, 0x66, 0x37, 0x61, 0x57, 0xc7, 0x14, 0x02, 0xf7, 0x81, 0x28, 0x45, 0xfe,
  0x2f, 0x3e, 0x51, 0x5b, 0xaa, 0x32, 0x48, 0x43, 0xf6, 0xf1, 0xd5, 0x30, 0xbb, 0x25, 0x8b, 0x37,
  0x37, 0x53, 0x83, 0xb7, 0xe4, 0x6e, 0xf3, 0x51, 0xea, 0xc6, 0x65, 0xdc, 0x95, 0x41, 0x1b, 0x6a,
  0x8f, 0x6a, 0xc1, 0x99, 0x40, 0x86, 0x08, 0xae, 0x5f, 0xf3, 0xf8, 0xf7, 0x9e, 0xa3, 0x64, 0x44,
  0xc7, 0xdf, 0x6a, 0xc1, 0x6e, 0x8a, 0x30, 0xe1, 0x33, 0xc3, 0x41, 0xd5, 0x83, 0xb2, 0x08, 0xe6,
  0x75, 0x4a, 0xb3, 0x5b, 0x3e, 0xc6, 0x81, 0xfc, 0x49, 0xeb, 0x9a, 0xbf, 0x23, 0x2a, 0x60, 0xdf,
  0x2b, 0x16, 0x23, 0x7f, 0xf9, 0xbf, 0x55, 0x32, 0xdd, 0x41, 0x00, 0x39, 0x01, 0xed, 0x28, 0xed,
  0xda, 0xd3, 0x35, 0xbd, 0xcc, 0xc4, 0x62, 0xf9, 0xee, 0x4f, 0xd9, 0x57, 0xcd, 0x3e, 0x4c, 0x70,
  0x3b, 0x13, 0xde, 0x0f, 0x7b, 0x4c, 0xef, 0x67, 0x6f, 0x70, 0x3c, 0x3e, 0xc4, 0xdc, 0xce, 0x0c,
  0x6b, 0x27, 0xcd, 0x35, 0x10, 0xed, 0x13, 0x67, 0xf2, 0x18, 0xe0, 0x78, 0xcd, 0x0d, 0x6c, 0x0b,
  0x5a, 0xd1, 0x0b, 0x78, 0x12, 0x18, 0xff, 0x38, 0xdf, 0x26, 0x0e, 0xef, 0xd3, 0x24, 0x53, 0xf3,
  0x42, 0x03, 0x51, 0x18, 0xe2, 0x7f, 0x4f, 0x15, 0x2d, 0xde, 0xf9, 0xdc, 0x31, 0x13, 0xdf, 0x44,
  0xe7, 0xde, 0x08, 0xc9, 0x28, 0x0d, 0x12, 0x6b, 0x37, 0x76, 0x36, 0xcb, 0x5a, 0x5f, 0x69, 0xd3,
  0x4a, 0x3d, 0x28, 0x41, 0x30, 0xe4, 0x45, 0x4f, 0x19, 0x16, 0x68, 0x75, 0xe8, 0x4d, 0xf4, 0x2f,
  0xfa, 0xfa, 0xc6, 0x20, 0x6c, 0x47, 0x6d, 0x33, 0xd2, 0xd1, 0x53, 0x2d, 0x2b, 0xcb, 0xf9, 0x7c,
  0x50, 0x05, 0xce, 0x22, 0x64, 0xf7, 0xe7, 0xcb, 0x34, 0x21, 0x4c, 0x31, 0xf0, 0x6b, 0xa0, 0x2d,
  0x45, 0x5d, 0xc3, 0x6c, 0x66, 0xd1, 0xd4, 0xed, 0x32, 0x1b, 0x07, 0xdd, 0x56, 0x67, 0xef, 0xa3,
  0x5a, 0x0d, 0xac, 0x3c, 0xb1, 0x71, 0x30, 0x40, 0x6c, 0x1a, 0x1b, 0x3b, 0x41, 0x62, 0xd0, 0x99,
  0xcc, 0xc2, 0xf1, 0x4b, 0xfe, 0xb8, 0xfb, 0x2a, 0x32, 0xd6, 0x03, 0x08, 0x7f, 0x06, 0xe1, 0x20,
  0x45, 0xf9, 0xdc, 0xfc, 0x11, 0x77, 0x9e, 0xe6, 0x52, 0x07, 0x5f, 0x18, 0xaa, 0xa4, 0x7c, 0x69,
  0x5a, 0x79, 0xa8, 0x6c, 0xa0, 0xba, 0xc1, 0x59, 0x35, 0xbb, 0x55, 0x2c, 0x11, 0xf2, 0x55, 0x73,
  0xc9, 0x23, 0xd1, 0x70, 0x7f, 0x6b, 0x4b, 0x1b, 0xc4, 0xb3, 0xe6, 0xe7, 0xc2, 0x04, 0xf7, 0xc8,
  0x1b, 0x0e, 0x38, 0xbf, 0x1e, 0x1f, 0xe4, 0xed, 0x48, 0xfa, 0x9a, 0x19, 0x5a, 0x0f, 0x68, 0x06,
  0xc6, 0x2e, 0x4a, 0x4c, 0xd6, 0x2a, 0x15, 0x7a, 0x55, 0x6c, 0x59, 0xfe, 0x7d, 0x01, 0x07, 0x56,
  0x86, 0xa3, 0xf2, 0xf5, 0x1d, 0xd9, 0x9d, 0x42, 0x1d, 0x0a, 0x94, 0x0c, 0xcc, 0x5d, 0xe6, 0xd8,
  0xc4, 0x7c, 0xec, 0x2e, 0xa8, 0x8f, 0x7f, 0x20, 0x77, 0x42, 0x76, 0x14, 0xb6, 0xb1, 0x4f, 0x11,
  0xd3, 0x03, 0x93, 0xf7, 0xe7, 0x0b, 0x75, 0x75, 0x18, 0xf5, 0x60, 0xec, 0xd2, 0x9d, 0x61, 0x2e,
  0x09, 0x4f, 0x95, 0x6b, 0x53, 0xa2, 0x3c, 0x67, 0x34, 0x86, 0x75, 0x85, 0xe8, 0x79, 0x71, 0xbe,
  0x62, 0x48, 0x05, 0x1e, 0x92, 0xf3, 0xfa, 0xb3, 0xdf, 0xce, 0xc4, 0xee, 0x0d, 0x20, 0xf8, 0x0b,
  0x26, 0x09, 0xbc, 0x06, 0x59, 0xca, 0xd5, 0x2c, 0x58, 0x5d, 0xc0, 0xea, 0x7f, 0xe4, 0x7f, 0x24,
  0xb1, 0x5d, 0xbb, 0xcf, 0xd0, 0xde, 0x2c, 0xe6, 0x01, 0x6b, 0x7c, 0x36, 0xce, 0x76, 0x71, 0x68,
  0xb9, 0x17, 0x43, 0x28, 0xc6, 0xe3, 0xb3, 0x4b, 0x53, 0xf3, 0xb2, 0x5b, 0xc7, 0x10, 0xba, 0x75,
  0x43, 0xee, 0x0a, 0x2a, 0x4f, 0xe7, 0xc7, 0xbe, 0x4f, 0xf8, 0x49, 0x1b, 0x72, 0xc9, 0x21, 0x5c,
  0xfd, 0x2d, 0xc6, 0x4b, 0xc2, 0x59, 0x1a, 0x53, 0x76, 0x78, 0x2c, 0xb3, 0xe2, 0xfa, 0x28, 0x0a,
  0x6e, 0xdc, 0x0f, 0xc1, 0xbc, 0x7f, 0x00, 0x71, 0xe8, 0x7b, 0x32, 0xb8, 0x4f, 0xce, 0x67, 0xe9,
  0xdd, 0x35, 0xc2, 0xb3, 0xe0, 0x0d, 0x08, 0xff, 0xe1, 0x47, 0x1d, 0xaa, 0x42, 0x25, 0x54, 0xf3,
  0xe1, 0x40, 0xdd, 0x69, 0x5e, 0x75, 0xe2, 0x31, 0x2e, 0xfb, 0xba, 0x05, 0xdb, 0x02, 0x5a, 0x03,
  0x1c, 0xd5, 0x31, 0xc1, 0x44, 0x3b, 0xec, 0x2d, 0x82, 0xe9, 0xff, 0xff, 0x04, 0x00, 0x00, 0x00,
  0x40, 0x00, 0x00, 0x00, 0xd5, 0x04, 0x00, 0x00, 0x69, 0x04, 0x00, 0x00, 0xf7, 0x03, 0x00, 0x00,
  0x1d, 0x04, 0x00, 0x00, 0x9d, 0x02, 0x00, 0x00, 0x12, 0xfe, 0xff, 0xff, 0xb3, 0x03, 0x00, 0x00,
  0x93, 0xff, 0xff, 0xff, 0xe7, 0xfe, 0xff, 0xff, 0x6c, 0x05, 0x00, 0x00, 0x75, 0x06, 0x00, 0x00,
  0x4d, 0x02, 0x00, 0x00, 0x58, 0x02, 0x00, 0x00, 0x15, 0x00, 0x00, 0x00, 0x08, 0x05, 0x00, 0x00,
  0x36, 0x03, 0x00, 0x00, 0xce, 0xe9, 0xff, 0xff, 0x04, 0x00, 0x00, 0x00, 0x00, 0x12, 0x00, 0x00,
  0x5a, 0xe1, 0x1a, 0x53, 0x6c, 0xcb, 0xdb, 0x42, 0x5c, 0x58, 0x78, 0xc7, 0xfb, 0xcb, 0xe6, 0x58,
  0x1d, 0x4d, 0x08, 0x01, 0xee, 0x1d, 0x05, 0xc4, 0xde, 0x03, 0x1b, 0x3b, 0xfc, 0x58, 0xf6, 0xfa,
  0x56, 0x5d, 0x1f, 0x06, 0xfb, 0x06, 0x55, 0x43, 0x20, 0x15, 0x51, 0x2c, 0x01, 0x43, 0x2a, 0x1d,
  0x2e, 0xd9, 0x4e, 0x4d, 0x31, 0xd3, 0x28, 0xff, 0xbd, 0x38, 0x6b, 0x69, 0x40, 0x2e, 0x5d, 0x76,
  0x24, 0xfd, 0xfd, 0x11, 0x66, 0x3d, 0x5a, 0x0f, 0xfd, 0x5b, 0x7c, 0xd5, 0x09, 0xc1, 0x72, 0x44,
  0x36, 0x3c, 0x0e, 0x43, 0xe7, 0x48, 0xdb, 0x53, 0x2e, 0x12, 0x5b, 0xe0, 0x0b, 0xde, 0x6e, 0x3a,
  0x5e, 0xf8, 0x4b, 0xf4, 0xfe, 0x13, 0x15, 0xf4, 0x1d, 0x41, 0x38, 0x08, 0x38, 0xf7, 0x7f, 0xe9,
  0xff, 0x60, 0x5c, 0xd9, 0x21, 0x00, 0xdc, 0x5a, 0xec, 0x4b, 0x27, 0xe0, 0x1b, 0xf2, 0x39, 0x75,
  0x65, 0xd5, 0x6e, 0x0c, 0x2c, 0x25, 0x40, 0x27, 0xbb, 0xf9, 0x15, 0xc4, 0x48, 0x1a, 0x0d, 0x25,
  0xea, 0x1d, 0xc1, 0xa0, 0xdd, 0x06, 0x21, 0x18, 0x64, 0xe4, 0x02, 0xaf, 0xd9, 0x29, 0xd2, 0xa4,
  0xa7, 0x06, 0x7e, 0x5a, 0xfb, 0xd5, 0xc2, 0xff, 0x3c, 0xe8, 0x47, 0x3e, 0xa1, 0xe9, 0x30, 0xd9,
  0x56, 0xf2, 0xa2, 0x7f, 0xca, 0xab, 0xaa, 0x03, 0xc5, 0xd6, 0x08, 0x71, 0x3d, 0x1d, 0xc3, 0xea,
  0x51, 0xb9, 0xf2, 0xc5, 0xe3, 0x92, 0x7a, 0xc1, 0x5b, 0xed, 0xe2, 0x41, 0x38, 0xbb, 0x20, 0x9e,
  0xb5, 0x7a, 0x22, 0x09, 0x7c, 0x0c, 0xb6, 0x98, 0x2e, 0x17, 0xcd, 0xad, 0xef, 0x6e, 0xed, 0x75,
  0x68, 0x47, 0x50, 0x27, 0x3c, 0xb4, 0x44, 0x25, 0x0c, 0xae, 0x23, 0xfc, 0x18, 0x13, 0x74, 0x32,
  0x5b, 0x21, 0x6c, 0x66, 0x22, 0x4c, 0x41, 0xc2, 0x43, 0x7d, 0x4f, 0x7a, 0xd7, 0x28, 0x5b, 0x09,
  0x1a, 0x9b, 0x66, 0xda, 0x49, 0xf1, 0xe9, 0x1d, 0x79, 0xa0, 0xc1, 0x6e, 0xe5, 0x33, 0xbc, 0x59,
  0xec, 0x57, 0x1c, 0x5f, 0x23, 0x10, 0xa1, 0xeb, 0xed, 0xa2, 0xe6, 0x41, 0x36, 0x4a, 0x44, 0xf8,
  0xdb, 0x08, 0x1f, 0xf0, 0x54, 0x89, 0xbf, 0xe9, 0xda, 0x94, 0x00, 0x50, 0x4e, 0x97, 0x89, 0x28,
  0xf7, 0x81, 0x28, 0x45, 0x01, 0x64, 0xa5, 0x90, 0xc2, 0x10, 0xc6, 0xcd, 0xb6, 0x1d, 0xb5, 0xef,
  0xa5, 0xd9, 0xed, 0xf0, 0xca, 0x26, 0xac, 0xe2, 0xdc, 0xcd, 0x8d, 0x10, 0x98, 0x4d, 0x56, 0xf8,
  0x87, 0x20, 0x54, 0xe0, 0x66, 0x31, 0xe9, 0xe2, 0x1b, 0xe4, 0x2b, 0xd2, 0x05, 0x19, 0x09, 0x07,
  0x7e, 0xe5, 0x02, 0x9f, 0x9a, 0x16, 0xc3, 0x74, 0x5d, 0x61, 0xa3, 0x88, 0x0e, 0x31, 0xcd, 0x76,
  0xc5, 0xb4, 0x61, 0x98, 0x02, 0xb8, 0x31, 0x1c, 0xec, 0xe3, 0xa4, 0x41, 0x50, 0xb1, 0xfb, 0xa4,
  0x1e, 0x99, 0xec, 0x8a, 0x57, 0x8f, 0xb4, 0xa3, 0x31, 0x99, 0x91, 0x50, 0xbc, 0xf2, 0xcd, 0xf8,
  0x3f, 0x85, 0x32, 0x4b, 0xb5, 0x2c, 0xfe, 0xb7, 0xcf, 0xc1, 0xb8, 0x72, 0x83, 0x65, 0xc1, 0x6b,
  0xd6, 0xff, 0xaf, 0x47, 0x10, 0xdd, 0x6b, 0xc8, 0xbb, 0xa6, 0xf0, 0x3a, 0xf8, 0x34, 0xaf, 0xcf,
  0xf4, 0x92, 0x0e, 0x21, 0xe9, 0x84, 0xd5, 0xb8, 0x17, 0x40, 0xba, 0xe0, 0xdb, 0xd5, 0xfe, 0x1f,
  0x55, 0xc9, 0xfb, 0x28, 0x3f, 0x5c, 0xa0, 0xda, 0xb3, 0xaf, 0xad, 0x0b, 0xce, 0x41, 0xa0, 0x59,
  0x9e, 0x07, 0x4e, 0xa5, 0x18, 0xb7, 0xf5, 0xc0, 0x1b, 0x59, 0x5d, 0x1f, 0xa2, 0x9c, 0xf2, 0xd4,
  0x98, 0x08, 0xde, 0x01, 0xf4, 0x85, 0xa0, 0x15, 0xdd, 0x33, 0xb7, 0xab, 0xf4, 0xd7, 0x45, 0x0c,
  0x40, 0x18, 0xfa, 0x07, 0x01, 0x0d, 0xc1, 0x52, 0x89, 0x27, 0x44, 0x44, 0x28, 0x0f, 0x81, 0xed,
  0xa4, 0x95, 0x19, 0x8e, 0xc3, 0x01, 0x2e, 0xa8, 0xe0, 0x39, 0xfe, 0xf8, 0x30, 0x9e, 0xe6, 0x8a,
  0xf5, 0x4a, 0xaf, 0xb3, 0xa9, 0x9b, 0x0e, 0x14, 0x47, 0xf3, 0xb4, 0xad, 0xab, 0x4e, 0x07, 0x53,
  0x5b, 0x07, 0x0e, 0xf4, 0x45, 0x94, 0x87, 0x9c, 0xfb, 0xd0, 0xf4, 0x40, 0xdd, 0x16, 0xfe, 0x1c,
  0xa7, 0xa0, 0x39, 0x1d, 0xaf, 0x31, 0x52, 0x14, 0xf5, 0x38, 0xda, 0x49, 0xee, 0xb3, 0xfb, 0xfc,
  0x26, 0x57, 0x67, 0xee, 0x3a, 0xd4, 0x36, 0x12, 0xda, 0x6b, 0xc2, 0xcd, 0x16, 0xc5, 0x3f, 0xad,
  0x73, 0xb5, 0x0c, 0xc9, 0xe7, 0x28, 0x59, 0xcc, 0x06, 0x6b, 0x74, 0xa3, 0xcd, 0x08, 0x4c, 0x18,
  0x27, 0xbf, 0x02, 0x2f, 0x0a, 0xc8, 0x57, 0xfb, 0xe1, 0xba, 0xeb, 0xaa, 0x4e, 0xe6, 0xf0, 0xe2,
  0xfb, 0x4d, 0x4d, 0xff, 0xc3, 0x1c, 0xfb, 0x0c, 0x3a, 0xa4, 0x45, 0xc2, 0x62, 0x05, 0x47, 0xe5,
  0x36, 0xf3, 0x39, 0xca, 0xf7, 0x19, 0x39, 0xe5, 0xfd, 0xf0, 0x17, 0xda, 0xc1, 0xca, 0x60, 0x39,
  0x3f, 0xc2, 0x0c, 0x0f, 0x07, 0xe5, 0xe8, 0x4a, 0x6b, 0x50, 0x67, 0x4a, 0x54, 0x3d, 0xb9, 0xd7,
  0xcb, 0x18, 0xc2, 0x7f, 0xd0, 0x98, 0x15, 0xde, 0xbf, 0x40, 0x49, 0x74, 0x23, 0xa4, 0x76, 0x69,
  0x5d, 0xd1, 0x48, 0x17, 0x5f, 0xd6, 0x3a, 0xd6, 0x78, 0xbc, 0xdc, 0x31, 0xf0, 0x0e, 0x65, 0x75,
  0xec, 0x0d, 0x68, 0x66, 0xdf, 0xc6, 0x57, 0xcc, 0x74, 0x01, 0x68, 0x19, 0xdb, 0xb9, 0x78, 0x1a,
  0x4a, 0x9b, 0x94, 0xd6, 0x2f, 0xfd, 0xb0, 0x8d, 0xc9, 0x13, 0xf3, 0xde, 0x3b, 0xd5, 0xf2, 0x17,
  0x90, 0x29, 0xc6, 0x58, 0xee, 0x17, 0x53, 0xdf, 0xc0, 0x1a, 0xdf, 0x09, 0xed, 0xf6, 0xf3, 0xf5,
  0x55, 0x3a, 0xd6, 0x13, 0x8f, 0x99, 0xd8, 0x30, 0xd2, 0x35, 0xfb, 0x96, 0xae, 0xae, 0x93, 0xaa,
  0x5b, 0xd6, 0x5b, 0x5b, 0xf3, 0xbc, 0x24, 0x9f, 0x04, 0x13, 0x7f, 0xc8, 0x5a, 0x26, 0x4e, 0x65,
  0xc4, 0x46, 0xfb, 0x0e, 0xf6, 0x04, 0x10, 0x38, 0x2c, 0x1a, 0x7b, 0xbf, 0xeb, 0xdf, 0x5f, 0xf9,
  0x14, 0x0e, 0xad, 0xc5, 0x36, 0x14, 0xf9, 0x33, 0x5f, 0x1d, 0x4d, 0x0f, 0xec, 0x2a, 0xc3, 0xa6,
  0x0b, 0x4d, 0xcc, 0x44, 0xe7, 0xe6, 0xda, 0xbe, 0xe8, 0xe0, 0xcb, 0xd1, 0xd4, 0x15, 0x23, 0xeb,
  0x42, 0x14, 0x18, 0x65, 0x9d, 0xa1, 0x56, 0x28, 0xf2, 0x31, 0x7d, 0x3f, 0x25, 0x22, 0xdd, 0x4f,
  0x5f, 0x51, 0x22, 0xa3, 0xe9, 0xfb, 0x94, 0x95, 0x00, 0xd3, 0x34, 0xda, 0xe8, 0xd0, 0xd2, 0xe0,
  0xb5, 0xeb, 0x01, 0x62, 0xe8, 0xda, 0xdd, 0xf1, 0x56, 0xe8, 0xd0, 0x28, 0x3e, 0x1c, 0x75, 0xba,
  0x6a, 0xe6, 0x21, 0x24, 0x0d, 0x34, 0x5c, 0x21, 0x1c, 0x52, 0x39, 0x0f, 0x52, 0xc8, 0x07, 0xda,
  0xd4, 0x20, 0x2a, 0x5b, 0xd2, 0xd7, 0x20, 0x1b, 0x75, 0xb9, 0xf5, 0x54, 0xd0, 0xbd, 0x26, 0x6d,
  0x62, 0x53, 0x1a, 0x7b, 0x61, 0x0c, 0x33, 0x21, 0x0a, 0xfa, 0x52, 0x77, 0x1e, 0x05, 0x7f, 0xe9,
  0x31, 0xcf, 0xd8, 0x1a, 0xc4, 0xed, 0xd4, 0x25, 0x56, 0x01, 0x07, 0xe7, 0xfd, 0x1a, 0x15, 0x4f,
  0x6e, 0xde, 0x73, 0x27, 0x58, 0x30, 0x71, 0xc2, 0x75, 0x18, 0xd3, 0xb5, 0xde, 0xd5, 0x6c, 0x11,
  0xde, 0x4c, 0x77, 0xd8, 0x6f, 0x38, 0xbe, 0xc2, 0x31, 0xd3, 0x65, 0xdc, 0x1c, 0x31, 0xd7, 0x70,
  0x28, 0x0f, 0x7b, 0x1e, 0x1b, 0x42, 0x40, 0xb2, 0x4d, 0x49, 0xd0, 0xf4, 0x2a, 0xf2, 0x6a, 0x57,
  0xfe, 0xf3, 0x3b, 0xef, 0xc5, 0xfd, 0x4a, 0xe1, 0xea, 0x50, 0x70, 0xec, 0x06, 0x2d, 0x1b, 0x56,
  0xf4, 0x76, 0xda, 0xcf, 0x0c, 0x58, 0x1f, 0xc5, 0x72, 0x34, 0x0b, 0xb0, 0xa2, 0xf7, 0x74, 0x15,
  0x3a, 0x0b, 0x1d, 0x45, 0xe2, 0xb0, 0xc0, 0x7e, 0xb1, 0xd0, 0x93, 0x48, 0x7f, 0x3a, 0xc5, 0xc3,
  0xdb, 0x36, 0x7c, 0xcb, 0xc4, 0xc8, 0x59, 0x2f, 0x5f, 0xd6, 0x41, 0xb6, 0xcc, 0xed, 0x33, 0xe3,
  0x0e, 0x6d, 0x62, 0x59, 0x61, 0x15, 0x76, 0x15, 0xb3, 0xb1, 0x07, 0x62, 0xc2, 0x72, 0x99, 0x38,
  0xe4, 0xe3, 0x23, 0xaa, 0xe5, 0x73, 0x1b, 0x0b, 0xab, 0x09, 0x0c, 0x7c, 0x24, 0xc1, 0xc0, 0x70,
  0x62, 0xeb, 0x54, 0x57, 0x03, 0x1f, 0xda, 0x68, 0x33, 0xd6, 0xaa, 0x67, 0xc5, 0x52, 0xae, 0x25,
  0xe2, 0x48, 0x0d, 0xca, 0x64, 0xe3, 0x75, 0x1e, 0xc3, 0xfd, 0x63, 0xf3, 0x6a, 0xfc, 0xf5, 0x06,
  0xe5, 0x47, 0x67, 0x4a, 0xc8, 0xb3, 0x66, 0xca, 0xe0, 0x67, 0x9a, 0xfc, 0xb8, 0xc8, 0xd1, 0xa1,
  0xf2, 0xec, 0x4a, 0x71, 0xbc, 0x27, 0x12, 0xec, 0xf9, 0xf4, 0x67, 0x2d, 0xd6, 0xef, 0xc4, 0x08,
  0xd4, 0x68, 0xc5, 0xa1, 0x90, 0x51, 0xbd, 0xcd, 0x31, 0x9e, 0xbb, 0x67, 0x52, 0x41, 0xfd, 0x5a,
  0xf5, 0xdd, 0x04, 0x0b, 0x11, 0x9a, 0x5b, 0x2e, 0xf5, 0x08, 0xa6, 0x82, 0x8e, 0x82, 0xc5, 0x3e,
  0x08, 0xcd, 0x20, 0xbc, 0x68, 0xe0, 0x8f, 0xf3, 0x36, 0x68, 0x18, 0xfb, 0x07, 0xe1, 0x54, 0xbc,
  0xbe, 0x63, 0xc5, 0x4d, 0x43, 0x2e, 0xd9, 0xbf, 0xeb, 0x23, 0x32, 0x43, 0x0a, 0x29, 0x33, 0xc3,
  0xbb, 0xdf, 0x42, 0xd7, 0x0c, 0xb6, 0xd7, 0xf1, 0x8c, 0xb0, 0x96, 0xd6, 0x88, 0xd3, 0xfe, 0xbd,
  0x66, 0x39, 0x95, 0xee, 0xbe, 0x11, 0x81, 0xe5, 0x44, 0xfd, 0xa0, 0xab, 0xda, 0x1b, 0xbc, 0xe0,
  0xed, 0x56, 0xe4, 0x8a, 0xdd, 0xb0, 0x02, 0x75, 0x5b, 0xfa, 0xb2, 0xb2, 0x48, 0xe9, 0x64, 0xb6,
  0xbf, 0x2b, 0x13, 0xdb, 0x16, 0x08, 0x1a, 0x9f, 0x1a, 0x26, 0xbf, 0x44, 0xab, 0xba, 0xc7, 0xec,
  0xb8, 0xac, 0x02, 0xc3, 0xaa, 0x6b, 0x86, 0x1f, 0x60, 0xd7, 0xcb, 0xfc, 0xa0, 0x21, 0xfe, 0x56,
  0xe7, 0x54, 0xf8, 0x6b, 0x1e, 0x26, 0x44, 0x44, 0x1a, 0x13, 0x5c, 0x58, 0xf2, 0x35, 0xfe, 0xf1,
  0x50, 0x1a, 0x0a, 0xf3, 0x3a, 0x08, 0x3a, 0x2d, 0x35, 0x37, 0xff, 0x34, 0x51, 0x48, 0x52, 0x01,
  0x1c, 0xe1, 0xf3, 0xf7, 0x59, 0xd2, 0x0c, 0xc6, 0x37, 0x2a, 0x2c, 0xed, 0x6a, 0x3c, 0x1c, 0xe2,
  0x33, 0x3a, 0x02, 0x38, 0x24, 0xea, 0x39, 0x5e, 0xe1, 0xf1, 0x7e, 0x40, 0x3a, 0x10, 0x2d, 0xd0,
  0x61, 0x18, 0x58, 0x33, 0x21, 0x42, 0x3b, 0xdd, 0x58, 0xda, 0x43, 0xf5, 0x08, 0x59, 0x1f, 0xfc,
  0x59, 0x61, 0xca, 0x47, 0xcf, 0x01, 0xe4, 0xcd, 0x20, 0xff, 0x1d, 0x1a, 0x5d, 0x4c, 0x6d, 0x00,
  0x1f, 0x47, 0xec, 0x39, 0x39, 0xbf, 0x41, 0xcc, 0x43, 0x39, 0x20, 0xd1, 0x39, 0x34, 0x3e, 0x66,
  0x0f, 0xcf, 0x5a, 0xd5, 0xd6, 0x16, 0x07, 0x15, 0x58, 0x51, 0xfa, 0xf5, 0x4d, 0xe4, 0x1a, 0x25,
  0xf3, 0x63, 0x15, 0x01, 0xe6, 0x43, 0x49, 0xc7, 0xf7, 0x3e, 0x7f, 0x0b, 0xde, 0x12, 0xf1, 0x22,
  0x8f, 0xa3, 0x99, 0x66, 0x3a, 0xe6, 0x1c, 0x9b, 0xa9, 0x28, 0xcc, 0xdb, 0x65, 0x8d, 0x8d, 0x09,
  0x47, 0x5f, 0xb7, 0x4f, 0x0e, 0x14, 0x48, 0xc5, 0x27, 0x28, 0xc1, 0xd2, 0x06, 0xcf, 0x2c, 0x53,
  0xa3, 0x3e, 0x55, 0xba, 0x62, 0xa4, 0xbd, 0xc2, 0xb7, 0xc8, 0x1d, 0xcc, 0xad, 0x10, 0x32, 0xec,
  0xb6, 0x96, 0xc9, 0x19, 0x47, 0x86, 0xb4, 0xb5, 0x92, 0x2d, 0xc3, 0x57, 0xf0, 0xe2, 0xd9, 0xb0,
  0x99, 0x4e, 0x43, 0xc0, 0x01, 0x35, 0x10, 0x99, 0x87, 0x61, 0x36, 0x3e, 0xd0, 0xaf, 0xe3, 0x5f,
  0xba, 0x81, 0x35, 0x8e, 0x63, 0x5c, 0xef, 0xd7, 0xce, 0x9b, 0x3a, 0x5e, 0x05, 0x1e, 0xcc, 0x41,
  0xad, 0xe7, 0xbc, 0xf7, 0x1f, 0xc1, 0x1c, 0x42, 0xe9, 0x63, 0x25, 0xee, 0x67, 0x20, 0xed, 0xc8,
  0xda, 0x1d, 0xab, 0x5f, 0x2d, 0x47, 0x55, 0x4f, 0x2f, 0xbf, 0xab, 0x96, 0x0f, 0xb6, 0xaf, 0x83,
  0xdf, 0x5c, 0x3d, 0xe7, 0xbc, 0x9e, 0x81, 0x2e, 0xb3, 0xff, 0xb2, 0xec, 0x55, 0x69, 0xdd, 0xb1,
  0xb6, 0x0b, 0x3c, 0x0a, 0x46, 0x4d, 0x24, 0xe2, 0xf1, 0x26, 0x04, 0xaf, 0xe2, 0xc6, 0x14, 0x19,
  0x4c, 0xf0, 0x18, 0x4d, 0x46, 0x71, 0xed, 0x00, 0x1e, 0x5f, 0xa9, 0x01, 0xb1, 0xba, 0x16, 0x4e,
  0x4b, 0xf4, 0xf9, 0x36, 0xd3, 0x31, 0x24, 0xf3, 0x61, 0xb4, 0xbe, 0x45, 0x13, 0xde, 0x10, 0x2b,
  0xc8, 0xf0, 0x1e, 0x50, 0xff, 0x71, 0x02, 0xf1, 0xcb, 0x64, 0x74, 0x1a, 0x5c, 0xc4, 0x7f, 0xc1,
  0x19, 0x79, 0x66, 0x13, 0x5b, 0xe4, 0x51, 0xbb, 0xbe, 0x6e, 0x5c, 0x6a, 0x14, 0x03, 0x6b, 0xca,
  0x1a, 0x33, 0x1b, 0xff, 0x4c, 0x03, 0xdd, 0x01, 0x46, 0x0f, 0x27, 0x2b, 0x20, 0xcf, 0x73, 0x7c,
  0xda, 0x6c, 0x1e, 0xb8, 0x1a, 0x41, 0x22, 0xdf, 0x38, 0xae, 0x17, 0x23, 0x3c, 0xae, 0xca, 0xe4,
  0xd5, 0x2f, 0x15, 0x48, 0x4b, 0xb3, 0x5f, 0x0c, 0x27, 0xde, 0xcd, 0xb3, 0xf8, 0x29, 0x3b, 0x51,
  0x12, 0xf8, 0x58, 0x2e, 0x65, 0xeb, 0x51, 0x16, 0xc0, 0x12, 0x03, 0x74, 0xe5, 0x30, 0x14, 0x65,
  0x9a, 0xe7, 0x9b, 0xea, 0xb3, 0x09, 0x9f, 0xa4, 0x53, 0xae, 0x38, 0xf0, 0x3c, 0xcd, 0xa9, 0xdf,
  0x1e, 0x14, 0x0b, 0x51, 0x94, 0xfc, 0xc8, 0x16, 0x56, 0xbd, 0x66, 0xe0, 0xe1, 0x09, 0x3d, 0xcd,
  0xa7, 0x26, 0xea, 0x23, 0x53, 0xcd, 0x5a, 0xf4, 0xef, 0x2f, 0x68, 0xa8, 0xf1, 0xab, 0x57, 0x2b,
  0x44, 0xa4, 0xa3, 0xb6, 0x50, 0x03, 0xf5, 0xdc, 0xe8, 0x3f, 0xe5, 0x01, 0xe0, 0x1b, 0x08, 0x52,
  0x41, 0x46, 0x55, 0x54, 0x98, 0xa1, 0x28, 0xd7, 0x33, 0x25, 0xe7, 0x57, 0x56, 0x3a, 0xeb, 0x55,
  0x9a, 0xe5, 0x14, 0x9a, 0x1b, 0x1e, 0x00, 0xbd, 0x52, 0xde, 0x4d, 0x3c, 0xb4, 0x20, 0x07, 0xf9,
  0xc3, 0x21, 0xaf, 0x00, 0x2f, 0x2d, 0xa2, 0x09, 0x9c, 0xfd, 0xf0, 0x93, 0x3a, 0xe8, 0x9e, 0x9d,
  0x1d, 0x00, 0xa2, 0x99, 0x3e, 0x2d, 0x58, 0x4a, 0xbc, 0xb8, 0x47, 0xa9, 0xea, 0x20, 0x74, 0xf2,
  0x44, 0x99, 0x26, 0x5c, 0x21, 0xa4, 0xb7, 0xe0, 0x0a, 0xc4, 0x3b, 0xd1, 0xb6, 0xe5, 0x7f, 0x9f,
  0x69, 0x05, 0x33, 0xc7, 0x3f, 0x28, 0xaf, 0xc7, 0xbd, 0xba, 0x22, 0xe9, 0x7e, 0x57, 0xd2, 0x12,
  0xec, 0x0a, 0xc0, 0xba, 0x7c, 0xee, 0x01, 0x4b, 0xe7, 0x39, 0x57, 0x1e, 0xef, 0xec, 0xc8, 0x72,
  0x20, 0x6e, 0xc7, 0xb8, 0xe1, 0x1d, 0x3a, 0xf2, 0x23, 0x12, 0x43, 0xb2, 0xad, 0x40, 0xd7, 0xca,
  0x4e, 0xac, 0x30, 0x79, 0x54, 0x6f, 0x33, 0xa2, 0x7d, 0x78, 0x71, 0xab, 0x4d, 0x52, 0x03, 0xbd,
  0x1a, 0xc1, 0xb3, 0xce, 0x05, 0x22, 0x7a, 0x45, 0x1d, 0x4c, 0xd6, 0xa4, 0x71, 0xde, 0xca, 0xc1,
  0x55, 0x6e, 0xfe, 0xb9, 0x36, 0xff, 0x5a, 0x3f, 0xf1, 0xd0, 0xdb, 0xb9, 0xc5, 0x3f, 0xfb, 0x31,
  0x7a, 0x44, 0x50, 0x63, 0xe8, 0x5d, 0x07, 0x3b, 0xab, 0x2f, 0x6f, 0x7a, 0x3b, 0x04, 0x01, 0xa5,
  0x2f, 0x77, 0xcb, 0x4c, 0xb3, 0xcc, 0x0d, 0x32, 0xc3, 0x50, 0xe7, 0x0b, 0xb2, 0x25, 0x7c, 0xbd,
  0x16, 0xb0, 0xb0, 0xe2, 0x0d, 0x5a, 0x7f, 0x5e, 0xcb, 0x3d, 0xc9, 0x72, 0x5e, 0xe0, 0xf2, 0x13,
  0x86, 0xda, 0x54, 0x51, 0x63, 0x8a, 0xfb, 0x92, 0xb2, 0x65, 0xc1, 0xa7, 0x0c, 0xe0, 0x8e, 0xd8,
  0x9f, 0xac, 0x9e, 0x8e, 0x8b, 0xe2, 0x6d, 0x42, 0x5a, 0x68, 0x57, 0xef, 0x8a, 0xa5, 0x84, 0xb5,
  0x12, 0x07, 0xde, 0xe2, 0xaf, 0x5b, 0x99, 0xd3, 0x9b, 0x5d, 0x27, 0x16, 0x8d, 0xcb, 0x8f, 0x38,
  0x06, 0xfc, 0xab, 0xcd, 0xc4, 0x20, 0x2a, 0x0d, 0xc4, 0xa5, 0xac, 0xe8, 0xe2, 0x5e, 0x64, 0x2a,
  0x0d, 0xd0, 0x8e, 0x0b, 0x69, 0x59, 0x4a, 0xd6, 0x16, 0xd4, 0x24, 0x2f, 0xfa, 0xaf, 0x51, 0x9f,
  0xef, 0xd6, 0x6e, 0xbf, 0x40, 0xd1, 0x81, 0xdc, 0x62, 0x58, 0x51, 0xda, 0xcf, 0xa4, 0xda, 0x30,
  0x54, 0x83, 0xea, 0xe7, 0xf9, 0xf9, 0xb9, 0x3f, 0x58, 0x2c, 0x4c, 0x8e, 0x4a, 0x44, 0x94, 0x94,
  0xa0, 0xef, 0xbe, 0x95, 0xca, 0x9d, 0xb0, 0xb4, 0x41, 0x56, 0x99, 0x88, 0x5b, 0x05, 0x14, 0x19,
  0xe1, 0x2b, 0x13, 0x4d, 0x50, 0x29, 0x92, 0x28, 0x5b, 0xa3, 0x21, 0xc1, 0x3d, 0x98, 0x8f, 0x55,
  0x41, 0x2c, 0x50, 0xdb, 0x50, 0x66, 0x3a, 0xdf, 0xb5, 0x3c, 0x8c, 0x24, 0x05, 0x18, 0x43, 0x62,
  0xd8, 0xe6, 0xb3, 0xcc, 0x96, 0x9a, 0x2c, 0xe7, 0x1a, 0x35, 0x1b, 0x63, 0xc1, 0x37, 0xec, 0xb3,
  0x58, 0xc4, 0x4a, 0x41, 0x55, 0x16, 0x2e, 0x34, 0x0c, 0xde, 0x90, 0xa4, 0x05, 0xbc, 0xbb, 0x9b,
  0x56, 0x86, 0x3d, 0xdc, 0x50, 0x34, 0xad, 0xa9, 0x0d, 0xf0, 0x3b, 0xc1, 0x8d, 0x5a, 0x37, 0x34,
  0x83, 0x0d, 0xa2, 0x17, 0x11, 0x04, 0xa3, 0x1e, 0x2c, 0x82, 0x02, 0xb5, 0xa2, 0xf9, 0x30, 0x02,
  0x28, 0x94, 0xb6, 0x8f, 0xed, 0x82, 0xde, 0xe6, 0x26, 0xbc, 0xcd, 0x03, 0x1f, 0x32, 0x01, 0x39,
  0x36, 0x96, 0xcf, 0x2b, 0xfc, 0xfd, 0xbe, 0xd2, 0xc9, 0xdd, 0x06, 0x8f, 0x40, 0xf2, 0xb3, 0xa2,
  0x11, 0x24, 0x60, 0x9f, 0xf2, 0x18, 0xaf, 0x9a, 0x1d, 0xc4, 0x1c, 0xa3, 0x4b, 0x09, 0x82, 0x47,
  0x08, 0x5f, 0x20, 0x8b, 0x85, 0xa3, 0x81, 0xe6, 0x16, 0xde, 0x63, 0x3c, 0xfc, 0xd7, 0x97, 0x62,
  0xa2, 0x53, 0x43, 0xca, 0x6b, 0xba, 0x94, 0xd5, 0xaa, 0xd6, 0x1e, 0xde, 0x6c, 0xfd, 0x17, 0x03,
  0x89, 0xdd, 0x36, 0x6a, 0xff, 0xcd, 0xca, 0xc1, 0x5f, 0x88, 0xe2, 0x89, 0xb3, 0x63, 0xa7, 0xea,
  0x1d, 0xc0, 0x2d, 0xf6, 0xd3, 0x5f, 0xf4, 0x45, 0x66, 0xd5, 0x6b, 0x0f, 0xeb, 0x11, 0x69, 0x36,
  0xa1, 0x0b, 0x91, 0x16, 0x82, 0x68, 0xe6, 0x52, 0x84, 0x24, 0x08, 0x5b, 0x47, 0xe6, 0xa3, 0x4c,
  0x88, 0xe6, 0xe1, 0xc0, 0x2c, 0x99, 0xaa, 0x5b, 0x1e, 0x3b, 0x8c, 0xca, 0x2f, 0x4e, 0x58, 0xc7,
  0x16, 0xaf, 0xb3, 0xa0, 0x9c, 0x69, 0x95, 0xc8, 0x2d, 0x24, 0x37, 0x59, 0x29, 0xdd, 0x90, 0x2e,
  0xf6, 0xd3, 0x28, 0x4e, 0x53, 0x4f, 0x84, 0x59, 0xdb, 0xfc, 0xa6, 0x2b, 0x3e, 0x00, 0xe4, 0x81,
  0x96, 0xc4, 0x10, 0xd9, 0xa7, 0xf9, 0xd6, 0x96, 0x20, 0x05, 0x45, 0x62, 0xae, 0xa8, 0xfc, 0x61,
  0x11, 0x0b, 0x65, 0xd5, 0x37, 0xfd, 0xac, 0xd8, 0x15, 0xf7, 0xdb, 0xa8, 0x15, 0xaf, 0xe2, 0xf3,
  0xe8, 0x40, 0xcd, 0x2c, 0x35, 0x59, 0xbc, 0xee, 0x48, 0xdc, 0x3a, 0x32, 0x1e, 0xde, 0x0c, 0x04,
  0x46, 0xf3, 0x42, 0xa7, 0x69, 0x5a, 0xd6, 0x29, 0xa5, 0x57, 0xdf, 0x1f, 0x56, 0x2f, 0xab, 0x54,
  0x9f, 0x2c, 0x28, 0xea, 0xda, 0xe0, 0x70, 0x47, 0xd4, 0xcd, 0xb7, 0xa3, 0xbf, 0xaf, 0x20, 0x27,
  0x32, 0x9e, 0x51, 0x6b, 0x0a, 0x5a, 0x0a, 0x69, 0xae, 0xb1, 0x58, 0xed, 0x17, 0x58, 0x79, 0xe5,
  0x11, 0xbf, 0x50, 0xb8, 0x07, 0x7f, 0xf1, 0xde, 0x1e, 0xd4, 0x0c, 0xf1, 0x46, 0x2e, 0x2f, 0x2c,
  0xab, 0x4d, 0xde, 0xe2, 0xa2, 0xb4, 0x7d, 0xaf, 0x3f, 0x5c, 0x00, 0x66, 0x12, 0xc6, 0xa3, 0x25,
  0x71, 0xf2, 0x35, 0xf0, 0x1b, 0xbd, 0xba, 0x3d, 0xc3, 0x5f, 0x3e, 0x58, 0x5d, 0x0a, 0xe3, 0x33,
  0xa8, 0x6e, 0xec, 0x4e, 0x43, 0xf7, 0x09, 0xd2, 0x74, 0xde, 0xf9, 0x45, 0xd2, 0xa8, 0x4c, 0xa9,
  0xd4, 0x33, 0x15, 0xa1, 0xf3, 0xda, 0xc0, 0x67, 0xd6, 0xc0, 0xe7, 0xff, 0x29, 0xa7, 0xfd, 0x5a,
  0x5e, 0x9a, 0xfe, 0xf2, 0x0b, 0x38, 0xb0, 0xa0, 0xbc, 0x0c, 0x9a, 0x1b, 0xa6, 0xc5, 0xc4, 0x43,
  0x37, 0x33, 0xdf, 0xb9, 0x2b, 0x38, 0xd4, 0x3e, 0x91, 0x07, 0x42, 0x2e, 0xaf, 0xd5, 0x3b, 0x26,
  0x2f, 0x52, 0x96, 0xda, 0xa7, 0xd1, 0x50, 0xa7, 0xe3, 0x45, 0x0b, 0xf3, 0xf8, 0x9e, 0xae, 0x5d,
  0xba, 0xf8, 0x04, 0xcc, 0xeb, 0x26, 0x34, 0xae, 0x2c, 0xb0, 0x8f, 0x09, 0x4c, 0x4a, 0x27, 0xe7,
  0x90, 0x98, 0x21, 0xa8, 0xfd, 0xa4, 0x2c, 0xf4, 0x06, 0xc7, 0xb0, 0x44, 0x9d, 0xcd, 0x08, 0x27,
  0x30, 0xcb, 0xde, 0xb7, 0x81, 0xf6, 0x10, 0x8c, 0x04, 0x14, 0xe0, 0x60, 0xb5, 0x8b, 0x18, 0xdf,
  0xf5, 0x60, 0x8b, 0x59, 0xac, 0xf8, 0x13, 0x15, 0xd7, 0x63, 0xf4, 0x0a, 0xf4, 0xd8, 0x8b, 0xeb,
  0xa2, 0xef, 0xb5, 0x3a, 0xee, 0xd9, 0xbd, 0x1a, 0x3f, 0x07, 0x46, 0xb8, 0x8d, 0xa7, 0xa9, 0x1b,
  0x94, 0x91, 0x00, 0x92, 0x48, 0xe5, 0xaa, 0xc6, 0x29, 0x8d, 0xc9, 0x8e, 0x3e, 0x43, 0x11, 0xb1,
  0xc8, 0x48, 0x43, 0xba, 0x06, 0xbb, 0xca, 0xda, 0x27, 0x48, 0x46, 0xbc, 0x90, 0x2a, 0x8b, 0x9c,
  0xc7, 0x38, 0xa1, 0x4d, 0xa6, 0x12, 0xf1, 0xeb, 0xe5, 0xde, 0xd2, 0x42, 0x97, 0x49, 0xfb, 0xce,
  0x57, 0xb0, 0x9e, 0xd1, 0x14, 0xc4, 0x9e, 0xc3, 0x57, 0xc4, 0xbd, 0x96, 0xd7, 0x27, 0x46, 0xe9,
  0x16, 0xca, 0xc5, 0x97, 0xd4, 0xaf, 0x00, 0xf9, 0xd0, 0xfd, 0xef, 0x35, 0x0c, 0xc2, 0xe2, 0x29,
  0xf2, 0x4e, 0xf5, 0x36, 0x39, 0x5e, 0x07, 0x99, 0x9d, 0x8b, 0x8d, 0x13, 0xed, 0x42, 0x03, 0xf7,
  0xd5, 0x29, 0x8b, 0xa1, 0x07, 0x26, 0xaa, 0x06, 0x8c, 0x83, 0x8d, 0x23, 0x2a, 0x57, 0x9a, 0x53,
  0xd4, 0x0e, 0xaf, 0xb6, 0xf1, 0x50, 0x41, 0x92, 0xb0, 0x88, 0x3f, 0xb2, 0xd0, 0x3d, 0x8b, 0x3a,
  0xe7, 0x97, 0xc2, 0x2a, 0x4d, 0xb8, 0xf8, 0xdf, 0x55, 0x9c, 0x06, 0x0c, 0x03, 0xd1, 0x81, 0x3c,
  0x3d, 0x45, 0xef, 0x26, 0x8a, 0x20, 0xef, 0xfe, 0xe2, 0xd8, 0x24, 0xf7, 0xea, 0x3b, 0xa2, 0x62,
  0x54, 0xad, 0x25, 0x5c, 0xde, 0x0b, 0x84, 0x29, 0xeb, 0xb6, 0x3d, 0x9b, 0x19, 0x3d, 0xec, 0x5e,
  0xa0, 0x19, 0xbf, 0xd9, 0xf8, 0x4e, 0xde, 0x3e, 0x4d, 0xea, 0xfa, 0x4b, 0x2c, 0xaf, 0x55, 0xe7,
  0x34, 0xcd, 0x9a, 0x26, 0x00, 0x39, 0x9f, 0x13, 0xa9, 0x0e, 0x50, 0x88, 0xfe, 0x0e, 0x99, 0x0c,
  0xae, 0x81, 0xb7, 0x32, 0xb3, 0x43, 0xb7, 0x40, 0xc7, 0xf1, 0xd6, 0xd5, 0xf9, 0x2e, 0xe8, 0xde,
  0xd9, 0xf8, 0xbc, 0x60, 0xdc, 0x43, 0x29, 0x63, 0x0d, 0xde, 0x1c, 0x1e, 0x50, 0xa2, 0xd0, 0xe4,
  0x1c, 0xc7, 0x48, 0xe2, 0xe2, 0x16, 0xda, 0xb9, 0x43, 0xe7, 0x58, 0xb5, 0xde, 0xc3, 0xf7, 0xa0,
  0xa3, 0x4a, 0x33, 0xa1, 0xbd, 0x97, 0x2e, 0x24, 0x3c, 0x26, 0x0c, 0xe3, 0xa3, 0x21, 0x40, 0x8c,
  0x34, 0x4e, 0x53, 0xb1, 0x90, 0x12, 0x25, 0x57, 0x45, 0x0d, 0xa9, 0xff, 0xf5, 0x1c, 0x11, 0xd3,
  0x41, 0xa4, 0x18, 0x0a, 0xf2, 0x08, 0xdf, 0x46, 0x28, 0xd8, 0x9d, 0x20, 0xc1, 0x38, 0x15, 0x22,
  0x39, 0x73, 0xbe, 0x47, 0xa8, 0x0a, 0xfb, 0xcc, 0xb3, 0xc5, 0x91, 0x94, 0xe6, 0x1a, 0x00, 0xf1,
  0xb2, 0xc4, 0x95, 0x61, 0x6e, 0x72, 0x0c, 0xa4, 0xdc, 0x15, 0x03, 0xd5, 0x05, 0x2e, 0x0d, 0x67,
  0x68, 0x36, 0x57, 0xe2, 0x0b, 0xe3, 0xfc, 0x3b, 0xd6, 0x48, 0x1f, 0x1d, 0x08, 0x4a, 0xb8, 0x7f,
  0x12, 0x0d, 0x68, 0x5b, 0xe8, 0xab, 0x4e, 0xe8, 0x50, 0x35, 0x01, 0xec, 0xc7, 0xb4, 0xb9, 0x92,
  0x42, 0xc1, 0x53, 0xbc, 0x7d, 0xba, 0x0c, 0x95, 0x0a, 0xa9, 0xf9, 0xf6, 0x05, 0x7a, 0x28, 0x10,
  0x6c, 0xad, 0x4f, 0x73, 0x25, 0x52, 0x2a, 0xa0, 0x19, 0x0a, 0x9a, 0xbd, 0x1e, 0xf2, 0x24, 0x53,
  0x2a, 0xc2, 0x2d, 0x27, 0xdd, 0x56, 0xf7, 0xae, 0xd3, 0xfd, 0xa8, 0x38, 0x9f, 0x99, 0x6d, 0x3f,
  0xf0, 0x3c, 0x4c, 0xff, 0xa9, 0xcc, 0xbc, 0xc7, 0x95, 0xab, 0xc3, 0xbf, 0xef, 0xa1, 0xf6, 0x11,
  0x17, 0x45, 0x55, 0x43, 0x93, 0xfc, 0xca, 0x9f, 0x38, 0x37, 0xaf, 0x56, 0xec, 0x1e, 0x01, 0xbb,
  0xda, 0x02, 0x03, 0x64, 0x93, 0x13, 0x46, 0x34, 0x48, 0x28, 0xde, 0xcf, 0x27, 0xc0, 0x99, 0xc1,
  0x2d, 0x65, 0xef, 0x90, 0xe9, 0xce, 0xd4, 0x47, 0x5b, 0x4b, 0x88, 0x98, 0x06, 0x60, 0x51, 0xae,
  0xcc, 0x09, 0x04, 0xfa, 0x9e, 0x11, 0x1e, 0x33, 0x81, 0x06, 0x57, 0x53, 0xe2, 0x84, 0x65, 0xdf,
  0xad, 0xa9, 0x04, 0xc9, 0xc2, 0xa6, 0xe9, 0xe1, 0x0f, 0x43, 0x26, 0xdc, 0x16, 0x4a, 0x2d, 0xeb,
  0xac, 0x4c, 0xe3, 0x2f, 0x24, 0x2e, 0x3c, 0x29, 0x5c, 0x95, 0x0a, 0x84, 0x13, 0xbe, 0x90, 0x5a,
  0x08, 0xd6, 0xe6, 0x06, 0x16, 0x31, 0xee, 0x45, 0xe1, 0x22, 0xb9, 0xc9, 0xe6, 0xa9, 0xe1, 0xe1,
  0xa9, 0xaa, 0xcf, 0x13, 0x82, 0x4f, 0xa2, 0xa8, 0xfc, 0xad, 0x87, 0x40, 0x2a, 0x0a, 0x11, 0x0c,
  0x20, 0x43, 0x4d, 0x3a, 0x89, 0xf8, 0xed, 0x3b, 0x1a, 0xdc, 0x4f, 0x04, 0x92, 0x8c, 0xae, 0xde,
  0x4a, 0xc2, 0xbd, 0x0b, 0x2d, 0x20, 0xb1, 0xd3, 0x49, 0xd8, 0x55, 0x03, 0x88, 0x07, 0x4e, 0x38,
  0x34, 0x45, 0x7b, 0xfc, 0x43, 0xbf, 0x5f, 0x53, 0x3c, 0x3e, 0xcd, 0x5b, 0x19, 0x14, 0x1c, 0x18,
  0x67, 0x04, 0x34, 0xbe, 0xcd, 0x45, 0xd5, 0xc5, 0x34, 0x4a, 0x2a, 0xeb, 0x32, 0xe8, 0x33, 0x53,
  0x34, 0xd2, 0xf5, 0x62, 0x29, 0x48, 0x7f, 0x41, 0xd4, 0xcf, 0xef, 0xdd, 0xe7, 0xbe, 0x06, 0x47,
  0xf4, 0x33, 0x32, 0xf7, 0x41, 0x6b, 0xea, 0xbf, 0x0e, 0xfa, 0x5c, 0x27, 0xfe, 0x3a, 0xe3, 0x05,
  0x1f, 0xc4, 0x0b, 0x3d, 0xc6, 0xcd, 0x30, 0x59, 0x02, 0x65, 0x05, 0x75, 0xf5, 0xc4, 0x4b, 0x3b,
  0xe3, 0x72, 0xec, 0x75, 0x76, 0x34, 0x55, 0x02, 0x39, 0x4d, 0xea, 0x09, 0xeb, 0x61, 0x61, 0x04,
  0x64, 0xf7, 0x39, 0xdc, 0x45, 0xea, 0xeb, 0x3e, 0xcc, 0x29, 0x67, 0x1b, 0x1a, 0x6a, 0x0b, 0xf2,
  0xf1, 0xdd, 0x4a, 0x1d, 0x04, 0xee, 0xe1, 0xb5, 0x28, 0x42, 0xf9, 0xf7, 0x20, 0x27, 0xd5, 0x3c,
  0xd5, 0x4b, 0x06, 0x72, 0x15, 0x65, 0xe8, 0x55, 0x55, 0x72, 0x6a, 0xe6, 0xf1, 0x4f, 0xfa, 0x74,
  0xc3, 0x58, 0xa1, 0x1d, 0x2a, 0x4e, 0x14, 0x5f, 0x0c, 0xb0, 0xea, 0xd7, 0xc3, 0x6c, 0xdc, 0xbb,
  0x4b, 0x66, 0xf8, 0xb7, 0x34, 0x8a, 0x46, 0x8f, 0xcd, 0xc1, 0xcf, 0x42, 0xb6, 0x9b, 0x96, 0xd9,
  0xfd, 0x9c, 0xb7, 0xdb, 0x6a, 0xf0, 0xa9, 0x3d, 0x9b, 0x98, 0xe7, 0x32, 0xb1, 0x99, 0x11, 0xf1,
  0xe5, 0x24, 0x4f, 0xe5, 0x36, 0x99, 0xa7, 0x36, 0xaa, 0x15, 0x5f, 0x0c, 0x58, 0xed, 0x82, 0xb7,
  0xe0, 0xa9, 0x53, 0x94, 0x10, 0xf5, 0xb4, 0x8c, 0x25, 0xfe, 0x59, 0x9e, 0xe2, 0xd7, 0x4a, 0x8a,
  0xa0, 0xc0, 0x3c, 0xce, 0xfa, 0x09, 0x87, 0x8e, 0x4b, 0x54, 0xfb, 0x0e, 0x81, 0xd6, 0x91, 0x25,
  0x6c, 0x64, 0xed, 0x32, 0x2c, 0xed, 0xb5, 0xf2, 0x6c, 0x12, 0x42, 0x8c, 0x35, 0xad, 0xf5, 0x6c,
  0x87, 0x02, 0x57, 0x83, 0x2a, 0x73, 0x50, 0x98, 0x37, 0x4a, 0xc6, 0xfd, 0x0d, 0x19, 0x98, 0x32,
  0xd0, 0x00, 0xe7, 0x26, 0xf1, 0x99, 0x26, 0x8c, 0xd6, 0xf4, 0xbc, 0xfd, 0x0c, 0xa6, 0xf2, 0xc2,
  0xbf, 0x63, 0x85, 0x6b, 0xeb, 0xf4, 0xed, 0x32, 0x51, 0x29, 0x92, 0xfc, 0x4e, 0x98, 0xe9, 0xa9,
  0x56, 0x8d, 0xe8, 0x68, 0x6b, 0xe8, 0xcc, 0x29, 0xc8, 0xb4, 0xab, 0xa5, 0xe3, 0x9c, 0xb6, 0x34,
  0x36, 0xd0, 0xfd, 0xaa, 0x22, 0xcf, 0xc4, 0xf6, 0x96, 0x16, 0xce, 0x31, 0xf1, 0xb4, 0x46, 0x1e,
  0xff, 0x65, 0x10, 0x01, 0xa2, 0x43, 0x0b, 0x30, 0x00, 0x0f, 0xe4, 0x5d, 0x62, 0x81, 0xee, 0x6b,
  0x54, 0xa2, 0xcf, 0x38, 0x65, 0x29, 0x08, 0xeb, 0xd7, 0xa1, 0x87, 0xaf, 0x5c, 0xe0, 0x89, 0x1b,
  0xa2, 0x18, 0x0a, 0xd1, 0xf7, 0xeb, 0x27, 0x61, 0xf6, 0xd6, 0x2a, 0xb3, 0xd5, 0xb0, 0x34, 0x4f,
  0xb8, 0x82, 0x91, 0x08, 0x3e, 0xbe, 0x25, 0xfc, 0x93, 0x5b, 0xfc, 0x49, 0x44, 0x67, 0x5e, 0xe3,
  0xe1, 0xbe, 0x4c, 0x89, 0xa8, 0xa0, 0xd9, 0x67, 0x15, 0xd7, 0x63, 0x0a, 0xee, 0xe6, 0x9b, 0x45,
  0x98, 0x89, 0xd0, 0x4f, 0x17, 0x51, 0x4a, 0x29, 0x63, 0xab, 0xec, 0x8e, 0x3f, 0xe6, 0x4d, 0x99,
  0xc5, 0xdc, 0xac, 0x3c, 0xa8, 0xdc, 0x02, 0x5e, 0xc2, 0xe6, 0x58, 0xae, 0x42, 0xa3, 0xb0, 0xd4,
  0x30, 0xfc, 0xf0, 0x46, 0x25, 0x60, 0xbc, 0x60, 0x10, 0xbe, 0xef, 0x6a, 0x99, 0x94, 0x8f, 0xb5,
  0x95, 0x89, 0x9e, 0x50, 0x71, 0x40, 0xed, 0xe3, 0x18, 0x28, 0x23, 0xb4, 0x0d, 0x11, 0x5e, 0xa9,
  0x67, 0xf9, 0xea, 0xfa, 0xfc, 0x38, 0xe3, 0x2e, 0x6f, 0x62, 0xf9, 0x3b, 0x85, 0xac, 0xd5, 0xa2,
  0xaf, 0x58, 0x96, 0xc4, 0x6d, 0x31, 0xae, 0x25, 0x03, 0xdf, 0xe9, 0x83, 0x94, 0x98, 0x59, 0x44,
  0xc6, 0x13, 0x01, 0x0d, 0xaa, 0x8f, 0x69, 0x5d, 0xd0, 0x65, 0xaf, 0xbf, 0x0b, 0x36, 0xd8, 0xa0,
  0xb0, 0x2c, 0x25, 0xf4, 0x15, 0xf6, 0xef, 0xd8, 0x1e, 0x19, 0x15, 0xb7, 0xde, 0xd0, 0x39, 0x96,
  0xbe, 0x81, 0xbd, 0xf4, 0xcf, 0x15, 0xbe, 0xfa, 0xe6, 0x0e, 0x56, 0x41, 0xc4, 0xeb, 0xe6, 0xa7,
  0x44, 0x62, 0xd2, 0x61, 0xad, 0x38, 0xca, 0x96, 0x4a, 0xd3, 0x9c, 0x8d, 0x0f, 0xee, 0x25, 0xaa,
  0x4b, 0xff, 0x86, 0xdc, 0x02, 0xb8, 0xf4, 0x3f, 0x02, 0x3c, 0x38, 0x9d, 0x0c, 0x68, 0x3f, 0x89,
  0x89, 0x59, 0x27, 0x37, 0x0c, 0xd4, 0x8c, 0xff, 0xfc, 0x06, 0xd0, 0xab, 0xfb, 0x8b, 0x34, 0xc7,
  0x68, 0x52, 0xca, 0x90, 0xf9, 0xaa, 0x90, 0x21, 0xb9, 0xd5, 0x47, 0x01, 0x95, 0xb6, 0xd7, 0x47,
  0xde, 0xf1, 0x30, 0x95, 0x0d, 0xce, 0xf1, 0xc9, 0x97, 0x62, 0xff, 0xb5, 0x5f, 0x5f, 0x42, 0x19,
  0x6d, 0xb0, 0xee, 0x60, 0xec, 0xb4, 0xea, 0x51, 0x10, 0xae, 0x0f, 0xc1, 0x67, 0x07, 0x86, 0x03,
  0xb9, 0xdc, 0x90, 0xc9, 0x25, 0xc5, 0xf0, 0xef, 0xbc, 0x9a, 0x81, 0xbf, 0xb2, 0xf1, 0x1d, 0x21,
  0x9b, 0xac, 0x0c, 0xc6, 0xd6, 0x65, 0x6e, 0xab, 0xf5, 0x49, 0x22, 0x28, 0xe3, 0xbb, 0xe9, 0xbe,
  0xfd, 0x6f, 0x94, 0xb3, 0xae, 0x4e, 0x23, 0x63, 0xee, 0x46, 0xdd, 0x49, 0x60, 0x09, 0xc1, 0xe7,
  0xf6, 0xec, 0x82, 0x5a, 0x29, 0xde, 0x06, 0xb2, 0xba, 0xfe, 0x91, 0xd1, 0xae, 0x42, 0x89, 0x57,
  0x1b, 0x17, 0x7a, 0x1a, 0x39, 0xd0, 0x7c, 0x3a, 0xd3, 0xc7, 0xed, 0xff, 0x5b, 0x6d, 0x3c, 0x22,
  0x3d, 0x10, 0x6c, 0x08, 0xbc, 0xb2, 0x62, 0x20, 0xb4, 0x0c, 0x62, 0x75, 0xd6, 0x23, 0xef, 0x1d,
  0x68, 0xdc, 0x09, 0x79, 0x21, 0xe3, 0x16, 0x16, 0xfd, 0x24, 0x1f, 0x09, 0x0c, 0x53, 0x7f, 0x0d,
  0x03, 0xf7, 0xf2, 0x09, 0xba, 0xe7, 0xd1, 0xc3, 0xd7, 0xfa, 0x2a, 0x3f, 0xd1, 0xd1, 0x5e, 0x2d,
  0x6e, 0x16, 0xe6, 0xbb, 0x5e, 0xc6, 0x7e, 0x1e, 0x05, 0xc0, 0x56, 0xe4, 0x76, 0x75, 0x2c, 0x77,
  0x29, 0x72, 0xf9, 0x47, 0x3f, 0xcf, 0xfe, 0x60, 0x2f, 0x61, 0xe9, 0x08, 0x58, 0x27, 0xc0, 0x1f,
  0xf0, 0x24, 0x1f, 0x4b, 0xc7, 0x1a, 0xf7, 0x6e, 0x40, 0x61, 0x19, 0x2a, 0xef, 0x76, 0xe0, 0x36,
  0xf3, 0xf5, 0xbc, 0x43, 0x21, 0xcf, 0x36, 0x33, 0xb9, 0xe1, 0x79, 0x43, 0x71, 0xe7, 0x06, 0x05,
  0xc3, 0x75, 0x7c, 0x51, 0xc4, 0xd5, 0x36, 0x04, 0xb4, 0x54, 0x78, 0x25, 0x04, 0xf8, 0x47, 0x40,
  0x61, 0xf5, 0x92, 0xde, 0xe0, 0xd5, 0x51, 0xca, 0xf4, 0x02, 0x4c, 0x5a, 0x81, 0x97, 0xe8, 0x1e,
  0x19, 0x4f, 0xc7, 0xe0, 0xb0, 0x06, 0xc1, 0x02, 0x8a, 0xb8, 0x9e, 0x5a, 0x9d, 0x14, 0xb8, 0xda,
  0x5b, 0xe7, 0xb7, 0xcd, 0xb5, 0x0a, 0xdf, 0x16, 0x1b, 0x50, 0x44, 0xae, 0x52, 0x09, 0xe2, 0x61,
  0xf4, 0xf4, 0x17, 0xc0, 0xae, 0x1b, 0xd5, 0xb5, 0xc8, 0x45, 0x9d, 0x1d, 0xc0, 0x04, 0x89, 0xbd,
  0xf5, 0xa3, 0x26, 0x12, 0x92, 0xa5, 0xff, 0x49, 0xe3, 0x10, 0xbd, 0x38, 0xaa, 0xb2, 0x99, 0x05,
  0xe1, 0x40, 0x50, 0x12, 0xfe, 0x50, 0x8b, 0x96, 0xae, 0xbc, 0x5c, 0x3e, 0xb3, 0xab, 0xe6, 0x0d,
  0x9a, 0xdf, 0x5c, 0xf8, 0x15, 0xbe, 0xdb, 0x31, 0x07, 0xf4, 0x27, 0xe9, 0xdf, 0x66, 0x5f, 0xdd,
  0x21, 0x90, 0x16, 0xe1, 0xde, 0xeb, 0xb5, 0x58, 0xc4, 0x56, 0xd7, 0x02, 0x55, 0xd0, 0x04, 0x24,
  0x4e, 0x34, 0x12, 0xd2, 0x2b, 0xf2, 0xa1, 0x1f, 0x06, 0x14, 0x4e, 0xa5, 0xe7, 0x94, 0x08, 0x8a,
  0xd1, 0xba, 0x37, 0x20, 0xb8, 0xfc, 0x19, 0x4e, 0x61, 0x51, 0xc9, 0xbf, 0x94, 0x99, 0x57, 0xdc,
  0x0d, 0xe9, 0xcf, 0x2b, 0x49, 0xac, 0x81, 0x05, 0xe3, 0xd2, 0x44, 0xa0, 0xed, 0xed, 0xe5, 0xe7,
  0xea, 0x0b, 0xfc, 0x2a, 0x95, 0xbe, 0x46, 0xe3, 0x4c, 0x3f, 0xa0, 0xaa, 0xa8, 0xf8, 0x2d, 0xca,
  0xdc, 0xbf, 0xe8, 0x4a, 0x49, 0x29, 0x9d, 0xd1, 0xd1, 0x9c, 0x55, 0x9c, 0xf1, 0xff, 0xcf, 0xf5,
  0xfd, 0xe5, 0xca, 0x1b, 0x23, 0xce, 0x09, 0x68, 0x17, 0x54, 0x25, 0x64, 0x5c, 0x31, 0xdb, 0x29,
  0x54, 0x5b, 0xd2, 0x18, 0x38, 0xec, 0xd5, 0x45, 0x13, 0x49, 0x02, 0x13, 0xac, 0xda, 0x57, 0x09,
  0xb5, 0xd7, 0xdd, 0xf0, 0x60, 0x2f, 0xef, 0x01, 0x06, 0x06, 0xdd, 0x4f, 0xc6, 0xed, 0x33, 0x98,
  0x82, 0xae, 0xf8, 0xbc, 0x16, 0x5a, 0x1d, 0xd9, 0x8a, 0xfe, 0x0d, 0x0b, 0x56, 0x31, 0x13, 0xc3,
  0xe4, 0xd8, 0x83, 0x8d, 0x2b, 0xdc, 0x5c, 0xee, 0x95, 0xd4, 0xb8, 0xa5, 0x93, 0xc9, 0xb6, 0xc9,
  0x9b, 0xc7, 0xad, 0x15, 0x58, 0x8a, 0x04, 0x47, 0xdf, 0xef, 0x89, 0x3b, 0x13, 0xc5, 0x3a, 0x2a,
  0xcc, 0xb9, 0x5e, 0x49, 0x33, 0xf1, 0x18, 0x0d, 0xac, 0x9a, 0x8b, 0x27, 0x9b, 0x12, 0x9d, 0xbc,
  0x3b, 0x81, 0xcd, 0xc2, 0x1d, 0xf1, 0x55, 0xed, 0x19, 0x6b, 0xeb, 0x83, 0x6b, 0x5f, 0xf2, 0x0f,
  0x6b, 0x30, 0x08, 0x10, 0xa5, 0x92, 0x85, 0x08, 0x0e, 0x48, 0x52, 0x11, 0x9e, 0xcb, 0xaf, 0xcf,
  0x94, 0xa7, 0x64, 0x67, 0xb0, 0x25, 0x93, 0x34, 0x5c, 0xd7, 0xd9, 0x17, 0x6a, 0x62, 0x81, 0xed,
  0x16, 0x11, 0x22, 0xcd, 0xa3, 0x50, 0x8c, 0x0a, 0x5d, 0x91, 0xd2, 0x43, 0xb0, 0x52, 0x52, 0x90,
  0x3d, 0x41, 0xae, 0x81, 0xc4, 0x50, 0xd7, 0x56, 0x5e, 0xbd, 0x91, 0xbc, 0x83, 0x47, 0x39, 0x97,
  0x2d, 0xd2, 0x82, 0x31, 0x26, 0xc9, 0x67, 0x31, 0x4c, 0xc1, 0x45, 0x8f, 0x97, 0x8e, 0x05, 0xb0,
  0x4f, 0xfd, 0xfe, 0x34, 0x09, 0xe4, 0xec, 0xae, 0x8b, 0x63, 0x4b, 0x9a, 0x0c, 0x55, 0x13, 0xfb,
  0xda, 0xfb, 0xff, 0xff, 0x04, 0x00, 0x00, 0x00, 0x80, 0x00, 0x00, 0x00, 0x20, 0x03, 0x00, 0x00,
  0x68, 0x01, 0x00, 0x00, 0x6b, 0xff, 0xff, 0xff, 0xd0, 0xfd, 0xff, 0xff, 0xc0, 0x01, 0x00, 0x00,
  0xfd, 0xfe, 0xff, 0xff, 0x74, 0x03, 0x00, 0x00, 0xd8, 0x02, 0x00, 0x00, 0x07, 0xff, 0xff, 0xff,
  0x14, 0x03, 0x00, 0x00, 0x86, 0xfe, 0xff, 0xff, 0xdb, 0x03, 0x00, 0x00, 0xce, 0xfe, 0xff, 0xff,
  0x6d, 0x02, 0x00, 0x00, 0x95, 0xfe, 0xff, 0xff, 0xd2, 0xfd, 0xff, 0xff, 0x54, 0xfe, 0xff, 0xff,
  0x4b, 0x02, 0x00, 0x00, 0x8d, 0xfd, 0xff, 0xff, 0x8d, 0xfd, 0xff, 0xff, 0xa6, 0xfd, 0xff, 0xff,
  0xdf, 0x01, 0x00, 0x00, 0xf9, 0xfd, 0xff, 0xff, 0xff, 0x02, 0x00, 0x00, 0xf9, 0xfe, 0xff, 0xff,
  0x6b, 0xfe, 0xff, 0xff, 0xca, 0xfe, 0xff, 0xff, 0xf7, 0xfe, 0xff, 0xff, 0x36, 0x03, 0x00, 0x00,
  0xf9, 0xfd, 0xff, 0xff, 0x5f, 0xfe, 0xff, 0xff, 0x75, 0xfe, 0xff, 0xff, 0x66, 0xfc, 0xff, 0xff,
  0x04, 0x00, 0x00, 0x00, 0x00, 0x02, 0x00, 0x00, 0x4b, 0x60, 0x9d, 0x0f, 0x14, 0x21, 0xb3, 0xb4,
  0x9c, 0x0c, 0x4d, 0xcb, 0x21, 0xbd, 0xda, 0x40, 0x40, 0xba, 0x3b, 0x13, 0xe3, 0xce, 0xbc, 0xd4,
  0xc8, 0x28, 0xdd, 0xe8, 0xab, 0xd2, 0x4f, 0x5f, 0x27, 0xfb, 0x1f, 0x53, 0x00, 0x70, 0x54, 0x38,
  0xe0, 0xc3, 0xaf, 0xb3, 0x52, 0x55, 0xf0, 0xd7, 0x2f, 0xf9, 0xa0, 0xbb, 0xd7, 0xe8, 0xdc, 0x05,
  0x1d, 0x3f, 0xdf, 0x4a, 0x73, 0x05, 0xe4, 0x9a, 0x55, 0x58, 0xe9, 0x5e, 0xc2, 0x9c, 0x99, 0x0f,
  0xb7, 0x2f, 0x4e, 0x1e, 0x5d, 0x98, 0x22, 0xf7, 0x34, 0xd6, 0x10, 0x0f, 0x40, 0xcb, 0x61, 0xa2,
  0x4e, 0x4b, 0x5a, 0x31, 0xda, 0xed, 0x0a, 0xc3, 0x62, 0xbd, 0xe7, 0x03, 0xf3, 0x60, 0x0f, 0x07,
  0x20, 0xd9, 0xa4, 0xb6, 0xdc, 0xdf, 0x07, 0x34, 0x60, 0x46, 0xd0, 0x4d, 0x1a, 0x32, 0x2c, 0x45,
  0xda, 0xe1, 0x54, 0x2f, 0x90, 0x37, 0x41, 0x59, 0x9d, 0xd9, 0xe9, 0xdb, 0x99, 0x57, 0x1c, 0xb7,
  0xe6, 0xd2, 0x3e, 0x36, 0x17, 0x17, 0x9c, 0x12, 0x42, 0xd8, 0x63, 0x26, 0x35, 0x49, 0xde, 0xe0,
  0x3b, 0x62, 0x58, 0x22, 0xb9, 0x2e, 0xc7, 0x06, 0x7f, 0x6b, 0xcc, 0xae, 0xc2, 0x2e, 0xc6, 0x22,
  0x15, 0x72, 0x65, 0x4f, 0x2b, 0x1e, 0xba, 0x64, 0xce, 0x2a, 0xd4, 0xa5, 0xe5, 0x3b, 0xba, 0x3a,
  0x18, 0xd1, 0xfe, 0x2a, 0xec, 0xb5, 0x03, 0x63, 0x2a, 0x68, 0xfb, 0xee, 0x4a, 0xe6, 0x12, 0x07,
  0xa7, 0x94, 0xec, 0xe8, 0xe3, 0xfe, 0x28, 0x9a, 0xaa, 0x63, 0x3d, 0xa2, 0x48, 0xd6, 0xea, 0xe6,
  0xcc, 0x20, 0x26, 0x36, 0xe3, 0xcd, 0x56, 0x44, 0x25, 0xc5, 0x24, 0xc8, 0x50, 0xc7, 0x71, 0x60,
  0xe3, 0xdf, 0x43, 0x6e, 0xb0, 0x05, 0x9b, 0xcc, 0xe4, 0x2b, 0xf3, 0xbc, 0x03, 0x5e, 0x0d, 0xa3,
  0x0d, 0x32, 0xd1, 0x05, 0x3d, 0x61, 0x99, 0x04, 0x15, 0x01, 0x44, 0xe7, 0xb8, 0x04, 0x3b, 0x56,
  0xeb, 0xd8, 0x2f, 0x29, 0x9f, 0x53, 0x36, 0x0e, 0xdb, 0x50, 0xbf, 0xe3, 0xc7, 0xf3, 0xce, 0x9b,
  0x49, 0xfe, 0x2a, 0x11, 0x60, 0x02, 0x19, 0x31, 0xcc, 0xc3, 0xc2, 0x47, 0xaf, 0xa1, 0x33, 0x0e,
  0x3d, 0x14, 0xdb, 0xfd, 0xc4, 0xab, 0xd8, 0xb6, 0xb9, 0xc1, 0x66, 0x41, 0xdf, 0xc9, 0x2c, 0xbe,
  0xe7, 0x19, 0x24, 0xc1, 0xf6, 0xcc, 0x0d, 0x3b, 0x09, 0x65, 0x69, 0xf8, 0x60, 0x63, 0x18, 0xcf,
  0x47, 0x06, 0x22, 0xf5, 0xf1, 0xce, 0x0d, 0xa5, 0xa2, 0xe2, 0x42, 0xd1, 0xf4, 0xf5, 0xba, 0xbc,
  0x94, 0xe3, 0x48, 0x1d, 0xd7, 0x4e, 0xc6, 0xcd, 0x4e, 0x49, 0xc6, 0xb7, 0x22, 0xe9, 0x67, 0xd9,
  0xcf, 0x01, 0xa0, 0x48, 0x19, 0xff, 0x9d, 0xc0, 0x2f, 0x0d, 0x20, 0x33, 0x9f, 0xbe, 0xe4, 0x73,
  0xef, 0x11, 0xc7, 0xdf, 0x69, 0xea, 0x26, 0xa7, 0x62, 0xd0, 0xde, 0x2b, 0x13, 0xa1, 0xf3, 0x2b,
  0x1e, 0xe6, 0x2d, 0x9b, 0x30, 0xfb, 0xc7, 0xa5, 0xa6, 0x61, 0x55, 0x03, 0x97, 0xff, 0xc6, 0x0f,
  0xda, 0x43, 0xa8, 0x5a, 0x9a, 0xa6, 0x3a, 0x60, 0x57, 0x10, 0xc6, 0xac, 0x19, 0xdf, 0x20, 0xb9,
  0x03, 0xa4, 0x2c, 0xa7, 0xaa, 0x0d, 0x50, 0x0c, 0xc1, 0x91, 0xd6, 0xfe, 0xb2, 0xf4, 0x14, 0xf3,
  0xe9, 0x4c, 0xc5, 0xff, 0x3c, 0x45, 0xcc, 0x2d, 0x46, 0xdf, 0x3a, 0x05, 0x7e, 0x29, 0x59, 0xb8,
  0x4c, 0x1b, 0x09, 0xd3, 0xff, 0x30, 0x1b, 0xc6, 0x9f, 0x1f, 0xc5, 0x9e, 0xf3, 0xe4, 0x5e, 0xcb,
  0x06, 0x07, 0xe5, 0x00, 0x64, 0x2b, 0x31, 0x65, 0xba, 0xff, 0x0f, 0xa5, 0xc2, 0x10, 0x3c, 0x42,
  0x43, 0xfa, 0x3c, 0xc5, 0x28, 0x16, 0x20, 0x11, 0xeb, 0xe3, 0x11, 0xf6, 0xeb, 0x66, 0x42, 0x9d,
  0x00, 0x0f, 0xc7, 0xb2, 0xf0, 0x67, 0xa3, 0xb2, 0x72, 0xfe, 0xff, 0xff, 0x04, 0x00, 0x00, 0x00,
  0x40, 0x00, 0x00, 0x00, 0xd4, 0xff, 0xff, 0xff, 0x92, 0x00, 0x00, 0x00, 0xcf, 0xff, 0xff, 0xff,
  0xd9, 0xff, 0xff, 0xff, 0xdd, 0xff, 0xff, 0xff, 0xa0, 0x00, 0x00, 0x00, 0xdf, 0xff, 0xff, 0xff,
  0x57, 0x00, 0x00, 0x00, 0xba, 0xff, 0xff, 0xff, 0x00, 0x00, 0x00, 0x00, 0xd8, 0xff, 0xff, 0xff,
  0x73, 0x00, 0x00, 0x00, 0x00, 0x00, 0x00, 0x00, 0x72, 0xff, 0xff, 0xff, 0xf3, 0x00, 0x00, 0x00,
  0x00, 0x00, 0x00, 0x00, 0xbe, 0xfe, 0xff, 0xff, 0x04, 0x00, 0x00, 0x00, 0x60, 0x00, 0x00, 0x00,
  0x56, 0xe6, 0x0d, 0x37, 0xac, 0x4b, 0x70, 0x4e, 0x8b, 0x4f, 0xf2, 0xd3, 0x1d, 0xb0, 0x37, 0x29,
  0xd9, 0xc1, 0xcf, 0xcf, 0x8e, 0x81, 0x66, 0xdb, 0xd5, 0x1b, 0xe6, 0x47, 0x49, 0x31, 0x3a, 0x34,
  0x84, 0xdc, 0xd2, 0x6f, 0x6d, 0xb5, 0x3f, 0x8a, 0xc0, 0xd5, 0x55, 0xe9, 0x8a, 0x2b, 0x8d, 0x78,
  0xc4, 0x56, 0x6f, 0x67, 0x11, 0x22, 0x8d, 0x9b, 0x55, 0x06, 0xa3, 0x23, 0x1c, 0xe9, 0x1d, 0xe5,
  0x47, 0xc9, 0xf2, 0x30, 0xdb, 0x4c, 0x92, 0x40, 0xa3, 0xb2, 0x3a, 0x9c, 0x93, 0xe1, 0x50, 0x5a,
  0xd8, 0x52, 0xfd, 0x28, 0xcd, 0x63, 0x9c, 0x4b, 0x1f, 0x47, 0x8d, 0x46, 0x79, 0xdc, 0x5e, 0x12,
  0x2a, 0xff, 0xff, 0xff, 0x04, 0x00, 0x00, 0x00, 0x18, 0x00, 0x00, 0x00, 0x6e, 0xff, 0xff, 0xff,
  0x6b, 0xff, 0xff, 0xff, 0xbb, 0xff, 0xff, 0xff, 0x56, 0xff, 0xff, 0xff, 0x6e, 0xff, 0xff, 0xff,
  0x9c, 0x00, 0x00, 0x00, 0x4e, 0xff, 0xff, 0xff, 0x04, 0x00, 0x00, 0x00, 0x08, 0x00, 0x00, 0x00,
  0x01, 0x00, 0x00, 0x00, 0x02, 0x00, 0x00, 0x00, 0x48, 0xec, 0xff, 0xff, 0x4c, 0xec, 0xff, 0xff,
  0x0f, 0x00, 0x00, 0x00, 0x4d, 0x4c, 0x49, 0x52, 0x20, 0x43, 0x6f, 0x6e, 0x76, 0x65, 0x72, 0x74,
  0x65, 0x64, 0x2e, 0x00, 0x01, 0x00, 0x00, 0x00, 0x14, 0x00, 0x00, 0x00, 0x00, 0x00, 0x0e, 0x00,
  0x18, 0x00, 0x14, 0x00, 0x10, 0x00, 0x0c, 0x00, 0x08, 0x00, 0x04, 0x00, 0x0e, 0x00, 0x00, 0x00,
  0x14, 0x00, 0x00, 0x00, 0x1c, 0x00, 0x00, 0x00, 0xd0, 0x02, 0x00, 0x00, 0xd4, 0x02, 0x00, 0x00,
  0xd8, 0x02, 0x00, 0x00, 0x04, 0x00, 0x00, 0x00, 0x6d, 0x61, 0x69, 0x6e, 0x00, 0x00, 0x00, 0x00,
  0x0a, 0x00, 0x00, 0x00, 0x6c, 0x02, 0x00, 0x00, 0x08, 0x02, 0x00, 0x00, 0xb8, 0x01, 0x00, 0x00,
  0x74, 0x01, 0x00, 0x00, 0x34, 0x01, 0x00, 0x00, 0xf0, 0x00, 0x00, 0x00, 0xbc, 0x00, 0x00, 0x00,
  0x78, 0x00, 0x00, 0x00, 0x40, 0x00, 0x00, 0x00, 0x04, 0x00, 0x00, 0x00, 0x2a, 0xfe, 0xff, 0xff,
  0x1c, 0x00, 0x00, 0x00, 0x00, 0x00, 0x00, 0x09, 0x1c, 0x00, 0x00, 0x00, 0x20, 0x00, 0x00, 0x00,
  0x04, 0x00, 0x00, 0x00, 0x00, 0x00, 0x06, 0x00, 0x08, 0x00, 0x04, 0x00, 0x06, 0x00, 0x00, 0x00,
  0x00, 0x00, 0x80, 0x3f, 0x01, 0x00, 0x00, 0x00, 0x15, 0x00, 0x00, 0x00, 0x01, 0x00, 0x00, 0x00,
  0x14, 0x00, 0x00, 0x00, 0x62, 0xfe, 0xff, 0xff, 0x14, 0x00, 0x00, 0x00, 0x00, 0x00, 0x00, 0x08,
  0x10, 0x00, 0x00, 0x00, 0x14, 0x00, 0x00, 0x00, 0x03, 0x00, 0x00, 0x00, 0x1c, 0xed, 0xff, 0xff,
  0x01, 0x00, 0x00, 0x00, 0x14, 0x00, 0x00, 0x00, 0x03, 0x00, 0x00, 0x00, 0x13, 0x00, 0x00, 0x00,
  0x03, 0x00, 0x00, 0x00, 0x02, 0x00, 0x00, 0x00, 0x96, 0xfe, 0xff, 0xff, 0x1c, 0x00, 0x00, 0x00,
  0x00, 0x00, 0x00, 0x08, 0x1c, 0x00, 0x00, 0x00, 0x20, 0x00, 0x00, 0x00, 0x03, 0x00, 0x00, 0x00,
  0x00, 0x00, 0x06, 0x00, 0x08, 0x00, 0x07, 0x00, 0x06, 0x00, 0x00, 0x00, 0x00, 0x00, 0x00, 0x01,
  0x01, 0x00, 0x00, 0x00, 0x13, 0x00, 0x00, 0x00, 0x03, 0x00, 0x00, 0x00, 0x12, 0x00, 0x00, 0x00,
  0x05, 0x00, 0x00, 0x00, 0x04, 0x00, 0x00, 0x00, 0xd6, 0xfe, 0xff, 0xff, 0x14, 0x00, 0x00, 0x00,
  0x00, 0x00, 0x00, 0x1b, 0x10, 0x00, 0x00, 0x00, 0x14, 0x00, 0x00, 0x00, 0x02, 0x00, 0x00, 0x00,
  0x90, 0xed, 0xff, 0xff, 0x01, 0x00, 0x00, 0x00, 0x12, 0x00, 0x00, 0x00, 0x02, 0x00, 0x00, 0x00,
  0x11, 0x00, 0x00, 0x00, 0x01, 0x00, 0x00, 0x00, 0x06, 0xff, 0xff, 0xff, 0x14, 0x00, 0x00, 0x00,
  0x00, 0x00, 0x00, 0x05, 0x24, 0x00, 0x00, 0x00, 0x28, 0x00, 0x00, 0x00, 0x01, 0x00, 0x00, 0x00,
  0xf6, 0xfe, 0xff, 0xff, 0x02, 0x00, 0x00, 0x00, 0x02, 0x00, 0x00, 0x00, 0x02, 0x00, 0x00, 0x00,
  0x02, 0x00, 0x00, 0x00, 0x00, 0x00, 0x00, 0x01, 0x01, 0x00, 0x00, 0x00, 0x11, 0x00, 0x00, 0x00,
  0x01, 0x00, 0x00, 0x00, 0x10, 0x00, 0x00, 0x00, 0xe6, 0xfe, 0xff, 0xff, 0x10, 0x00, 0x00, 0x00,
  0x00, 0x00, 0x00, 0x01, 0x18, 0x00, 0x00, 0x00, 0x1c, 0x00, 0x00, 0x00, 0xd8, 0xfe, 0xff, 0xff,
  0x00, 0x00, 0x00, 0x01, 0x01, 0x00, 0x00, 0x00, 0x01, 0x00, 0x00, 0x00, 0x01, 0x00, 0x00, 0x00,
  0x10, 0x00, 0x00, 0x00, 0x03, 0x00, 0x00, 0x00, 0x0f, 0x00, 0x00, 0x00, 0x07, 0x00, 0x00, 0x00,
  0x06, 0x00, 0x00, 0x00, 0x82, 0xff, 0xff, 0xff, 0x14, 0x00, 0x00, 0x00, 0x00, 0x00, 0x00, 0x05,
  0x24, 0x00, 0x00, 0x00, 0x28, 0x00, 0x00, 0x00, 0x01, 0x00, 0x00, 0x00, 0x72, 0xff, 0xff, 0xff,
  0x02, 0x00, 0x00, 0x00, 0x02, 0x00, 0x00, 0x00, 0x02, 0x00, 0x00, 0x00, 0x02, 0x00, 0x00, 0x00,
  0x00, 0x00, 0x00, 0x01, 0x01, 0x00, 0x00, 0x00, 0x0f, 0x00, 0x00, 0x00, 0x01, 0x00, 0x00, 0x00,
  0x0e, 0x00, 0x00, 0x00, 0x62, 0xff, 0xff, 0xff, 0x10, 0x00, 0x00, 0x00, 0x00, 0x00, 0x00, 0x01,
  0x18, 0x00, 0x00, 0x00, 0x1c, 0x00, 0x00, 0x00, 0x54, 0xff, 0xff, 0xff, 0x00, 0x00, 0x00, 0x01,
  0x01, 0x00, 0x00, 0x00, 0x01, 0x00, 0x00, 0x00, 0x01, 0x00, 0x00, 0x00, 0x0e, 0x00, 0x00, 0x00,
  0x03, 0x00, 0x00, 0x00, 0x0d, 0x00, 0x00, 0x00, 0x09, 0x00, 0x00, 0x00, 0x08, 0x00, 0x00, 0x00,
  0x00, 0x00, 0x0e, 0x00, 0x1a, 0x00, 0x14, 0x00, 0x10, 0x00, 0x0c, 0x00, 0x0b, 0x00, 0x04, 0x00,
  0x0e, 0x00, 0x00, 0x00, 0x24, 0x00, 0x00, 0x00, 0x00, 0x00, 0x00, 0x05, 0x34, 0x00, 0x00, 0x00,
  0x38, 0x00, 0x00, 0x00, 0x01, 0x00, 0x00, 0x00, 0x00, 0x00, 0x0e, 0x00, 0x18, 0x00, 0x17, 0x00,
  0x10, 0x00, 0x0c, 0x00, 0x08, 0x00, 0x04, 0x00, 0x0e, 0x00, 0x00, 0x00, 0x02, 0x00, 0x00, 0x00,
  0x02, 0x00, 0x00, 0x00, 0x02, 0x00, 0x00, 0x00, 0x02, 0x00, 0x00, 0x00, 0x00, 0x00, 0x00, 0x01,
  0x01, 0x00, 0x00, 0x00, 0x0d, 0x00, 0x00, 0x00, 0x01, 0x00, 0x00, 0x00, 0x0c, 0x00, 0x00, 0x00,
  0x00, 0x00, 0x0e, 0x00, 0x14, 0x00, 0x00, 0x00, 0x10, 0x00, 0x0c, 0x00, 0x0b, 0x00, 0x04, 0x00,
  0x0e, 0x00, 0x00, 0x00, 0x1c, 0x00, 0x00, 0x00, 0x00, 0x00, 0x00, 0x01, 0x24, 0x00, 0x00, 0x00,
  0x28, 0x00, 0x00, 0x00, 0x0c, 0x00, 0x10, 0x00, 0x00, 0x00, 0x0c, 0x00, 0x08, 0x00, 0x07, 0x00,
  0x0c, 0x00, 0x00, 0x00, 0x00, 0x00, 0x00, 0x01, 0x01, 0x00, 0x00, 0x00, 0x01, 0x00, 0x00, 0x00,
  0x01, 0x00, 0x00, 0x00, 0x0c, 0x00, 0x00, 0x00, 0x03, 0x00, 0x00, 0x00, 0x00, 0x00, 0x00, 0x00,
  0x0b, 0x00, 0x00, 0x00, 0x0a, 0x00, 0x00, 0x00, 0x01, 0x00, 0x00, 0x00, 0x15, 0x00, 0x00, 0x00,
  0x01, 0x00, 0x00, 0x00, 0x00, 0x00, 0x00, 0x00, 0x16, 0x00, 0x00, 0x00, 0xfc, 0x10, 0x00, 0x00,
  0x74, 0x10, 0x00, 0x00, 0xe0, 0x0f, 0x00, 0x00, 0x74, 0x0f, 0x00, 0x00, 0x00, 0x0f, 0x00, 0x00,
  0x94, 0x0e, 0x00, 0x00, 0xa8, 0x0c, 0x00, 0x00, 0xbc, 0x0a, 0x00, 0x00, 0x90, 0x09, 0x00, 0x00,
  0x64, 0x08, 0x00, 0x00, 0x98, 0x07, 0x00, 0x00, 0xcc, 0x06, 0x00, 0x00, 0xe8, 0x05, 0x00, 0x00,
  0x54, 0x05, 0x00, 0x00, 0x68, 0x04, 0x00, 0x00, 0xd4, 0x03, 0x00, 0x00, 0xe8, 0x02, 0x00, 0x00,
  0x54, 0x02, 0x00, 0x00, 0xc8, 0x01, 0x00, 0x00, 0x1c, 0x01, 0x00, 0x00, 0x80, 0x00, 0x00, 0x00,
  0x04, 0x00, 0x00, 0x00, 0x72, 0xef, 0xff, 0xff, 0x00, 0x00, 0x00, 0x01, 0x18, 0x00, 0x00, 0x00,
  0x20, 0x00, 0x00, 0x00, 0x3c, 0x00, 0x00, 0x00, 0x16, 0x00, 0x00, 0x00, 0x00, 0x00, 0x00, 0x09,
  0x50, 0x00, 0x00, 0x00, 0x02, 0x00, 0x00, 0x00, 0xff, 0xff, 0xff, 0xff, 0x06, 0x00, 0x00, 0x00,
  0x54, 0xef, 0xff, 0xff, 0x08, 0x00, 0x00, 0x00, 0x10, 0x00, 0x00, 0x00, 0x01, 0x00, 0x00, 0x00,
  0x80, 0xff, 0xff, 0xff, 0xff, 0xff, 0xff, 0xff, 0x01, 0x00, 0x00, 0x00, 0x00, 0x00, 0x80, 0x3b,
  0x19, 0x00, 0x00, 0x00, 0x53, 0x74, 0x61, 0x74, 0x65, 0x66, 0x75, 0x6c, 0x50, 0x61, 0x72, 0x74,
  0x69, 0x74, 0x69, 0x6f, 0x6e, 0x65, 0x64, 0x43, 0x61, 0x6c, 0x6c, 0x3a, 0x30, 0x00, 0x00, 0x00,
  0x02, 0x00, 0x00, 0x00, 0x01, 0x00, 0x00, 0x00, 0x06, 0x00, 0x00, 0x00, 0xea, 0xef, 0xff, 0xff,
  0x00, 0x00, 0x00, 0x01, 0x18, 0x00, 0x00, 0x00, 0x20, 0x00, 0x00, 0x00, 0x40, 0x00, 0x00, 0x00,
  0x15, 0x00, 0x00, 0x00, 0x00, 0x00, 0x00, 0x09, 0x70, 0x00, 0x00, 0x00, 0x02, 0x00, 0x00, 0x00,
  0xff, 0xff, 0xff, 0xff, 0x06, 0x00, 0x00, 0x00, 0xcc, 0xef, 0xff, 0xff, 0x08, 0x00, 0x00, 0x00,
  0x14, 0x00, 0x00, 0x00, 0x01, 0x00, 0x00, 0x00, 0xf5, 0xff, 0xff, 0xff, 0xff, 0xff, 0xff, 0xff,
  0x00, 0x00, 0x00, 0x00, 0x01, 0x00, 0x00, 0x00, 0xed, 0x96, 0x35, 0x3e, 0x34, 0x00, 0x00, 0x00,
  0x73, 0x65, 0x71, 0x75, 0x65, 0x6e, 0x74, 0x69, 0x61, 0x6c, 0x2f, 0x64, 0x65, 0x6e, 0x73, 0x65,
  0x5f, 0x31, 0x2f, 0x4d, 0x61, 0x74, 0x4d, 0x75, 0x6c, 0x3b, 0x73, 0x65, 0x71, 0x75, 0x65, 0x6e,
  0x74, 0x69, 0x61, 0x6c, 0x2f, 0x64, 0x65, 0x6e, 0x73, 0x65, 0x5f, 0x31, 0x2f, 0x42, 0x69, 0x61,
  0x73, 0x41, 0x64, 0x64, 0x00, 0x00, 0x00, 0x00, 0x02, 0x00, 0x00, 0x00, 0x01, 0x00, 0x00, 0x00,
  0x06, 0x00, 0x00, 0x00, 0x82, 0xf0, 0xff, 0xff, 0x00, 0x00, 0x00, 0x01, 0x18, 0x00, 0x00, 0x00,
  0x20, 0x00, 0x00, 0x00, 0x40, 0x00, 0x00, 0x00, 0x14, 0x00, 0x00, 0x00, 0x00, 0x00, 0x00, 0x09,
  0x80, 0x00, 0x00, 0x00, 0x02, 0x00, 0x00, 0x00, 0xff, 0xff, 0xff, 0xff, 0x10, 0x00, 0x00, 0x00,
  0x64, 0xf0, 0xff, 0xff, 0x08, 0x00, 0x00, 0x00, 0x14, 0x00, 0x00, 0x00, 0x01, 0x00, 0x00, 0x00,
  0x80, 0xff, 0xff, 0xff, 0xff, 0xff, 0xff, 0xff, 0x00, 0x00, 0x00, 0x00, 0x01, 0x00, 0x00, 0x00,
  0xc2, 0x38, 0xa0, 0x3d, 0x46, 0x00, 0x00, 0x00, 0x73, 0x65, 0x71, 0x75, 0x65, 0x6e, 0x74, 0x69,
  0x61, 0x6c, 0x2f, 0x64, 0x65, 0x6e, 0x73, 0x65, 0x2f, 0x4d, 0x61, 0x74, 0x4d, 0x75, 0x6c, 0x3b,
  0x73, 0x65, 0x71, 0x75, 0x65, 0x6e, 0x74, 0x69, 0x61, 0x6c, 0x2f, 0x64, 0x65, 0x6e, 0x73, 0x65,
  0x2f, 0x52, 0x65, 0x6c, 0x75, 0x3b, 0x73, 0x65, 0x71, 0x75, 0x65, 0x6e, 0x74, 0x69, 0x61, 0x6c,
  0x2f, 0x64, 0x65, 0x6e, 0x73, 0x65, 0x2f, 0x42, 0x69, 0x61, 0x73, 0x41, 0x64, 0x64, 0x00, 0x00,
  0x02, 0x00, 0x00, 0x00, 0x01, 0x00, 0x00, 0x00, 0x10, 0x00, 0x00, 0x00, 0x2a, 0xf1, 0xff, 0xff,
  0x00, 0x00, 0x00, 0x01, 0x18, 0x00, 0x00, 0x00, 0x20, 0x00, 0x00, 0x00, 0x3c, 0x00, 0x00, 0x00,
  0x13, 0x00, 0x00, 0x00, 0x00, 0x00, 0x00, 0x09, 0x60, 0x00, 0x00, 0x00, 0x02, 0x00, 0x00, 0x00,
  0xff, 0xff, 0xff, 0xff, 0x20, 0x00, 0x00, 0x00, 0x0c, 0xf1, 0xff, 0xff, 0x08, 0x00, 0x00, 0x00,
  0x10, 0x00, 0x00, 0x00, 0x01, 0x00, 0x00, 0x00, 0x80, 0xff, 0xff, 0xff, 0xff, 0xff, 0xff, 0xff,
  0x01, 0x00, 0x00, 0x00, 0xfc, 0x4b, 0x8f, 0x3d, 0x28, 0x00, 0x00, 0x00, 0x73, 0x65, 0x71, 0x75,
  0x65, 0x6e, 0x74, 0x69, 0x61, 0x6c, 0x2f, 0x67, 0x6c, 0x6f, 0x62, 0x61, 0x6c, 0x5f, 0x61, 0x76,
  0x65, 0x72, 0x61, 0x67, 0x65, 0x5f, 0x70, 0x6f, 0x6f, 0x6c, 0x69, 0x6e, 0x67, 0x32, 0x64, 0x2f,
  0x4d, 0x65, 0x61, 0x6e, 0x00, 0x00, 0x00, 0x00, 0x02, 0x00, 0x00, 0x00, 0x01, 0x00, 0x00, 0x00,
  0x20, 0x00, 0x00, 0x00, 0xb2, 0xf1, 0xff, 0xff, 0x00, 0x00, 0x00, 0x01, 0x18, 0x00, 0x00, 0x00,
  0x28, 0x00, 0x00, 0x00, 0x44, 0x00, 0x00, 0x00, 0x12, 0x00, 0x00, 0x00, 0x00, 0x00, 0x00, 0x09,
  0x60, 0x00, 0x00, 0x00, 0x04, 0x00, 0x00, 0x00, 0xff, 0xff, 0xff, 0xff, 0x10, 0x00, 0x00, 0x00,
  0x10, 0x00, 0x00, 0x00, 0x20, 0x00, 0x00, 0x00, 0x9c, 0xf1, 0xff, 0xff, 0x08, 0x00, 0x00, 0x00,
  0x10, 0x00, 0x00, 0x00, 0x01, 0x00, 0x00, 0x00, 0x80, 0xff, 0xff, 0xff, 0xff, 0xff, 0xff, 0xff,
  0x01, 0x00, 0x00, 0x00, 0x64, 0x9d, 0xa2, 0x3d, 0x22, 0x00, 0x00, 0x00, 0x73, 0x65, 0x71, 0x75,
  0x65, 0x6e, 0x74, 0x69, 0x61, 0x6c, 0x2f, 0x6d, 0x61, 0x78, 0x5f, 0x70, 0x6f, 0x6f, 0x6c, 0x69,
  0x6e, 0x67, 0x32, 0x64, 0x5f, 0x32, 0x2f, 0x4d, 0x61, 0x78, 0x50, 0x6f, 0x6f, 0x6c, 0x00, 0x00,
  0x04, 0x00, 0x00, 0x00, 0x01, 0x00, 0x00, 0x00, 0x10, 0x00, 0x00, 0x00, 0x10, 0x00, 0x00, 0x00,
  0x20, 0x00, 0x00, 0x00, 0x42, 0xf2, 0xff, 0xff, 0x00, 0x00, 0x00, 0x01, 0x18, 0x00, 0x00, 0x00,
  0x28, 0x00, 0x00, 0x00, 0x44, 0x00, 0x00, 0x00, 0x11, 0x00, 0x00, 0x00, 0x00, 0x00, 0x00, 0x09,
  0xb8, 0x00, 0x00, 0x00, 0x04, 0x00, 0x00, 0x00, 0xff, 0xff, 0xff, 0xff, 0x20, 0x00, 0x00, 0x00,
  0x20, 0x00, 0x00, 0x00, 0x20, 0x00, 0x00, 0x00, 0x2c, 0xf2, 0xff, 0xff, 0x08, 0x00, 0x00, 0x00,
  0x10, 0x00, 0x00, 0x00, 0x01, 0x00, 0x00, 0x00, 0x80, 0xff, 0xff, 0xff, 0xff, 0xff, 0xff, 0xff,
  0x01, 0x00, 0x00, 0x00, 0x64, 0x9d, 0xa2, 0x3d, 0x7a, 0x00, 0x00, 0x00, 0x73, 0x65, 0x71, 0x75,
  0x65, 0x6e, 0x74, 0x69, 0x61, 0x6c, 0x2f, 0x63, 0x6f, 0x6e, 0x76, 0x32, 0x64, 0x5f, 0x32, 0x2f,
  0x52, 0x65, 0x6c, 0x75, 0x3b, 0x73, 0x65, 0x71, 0x75, 0x65, 0x6e, 0x74, 0x69, 0x61, 0x6c, 0x2f,
  0x63, 0x6f, 0x6e, 0x76, 0x32, 0x64, 0x5f, 0x32, 0x2f, 0x42, 0x69, 0x61, 0x73, 0x41, 0x64, 0x64,
  0x3b, 0x73, 0x65, 0x71, 0x75, 0x65, 0x6e, 0x74, 0x69, 0x61, 0x6c, 0x2f, 0x63, 0x6f, 0x6e, 0x76,
  0x32, 0x64, 0x5f, 0x32, 0x2f, 0x43, 0x6f, 0x6e, 0x76, 0x32, 0x44, 0x3b, 0x73, 0x65, 0x71, 0x75,
  0x65, 0x6e, 0x74, 0x69, 0x61, 0x6c, 0x2f, 0x63, 0x6f, 0x6e, 0x76, 0x32, 0x64, 0x5f, 0x32, 0x2f,
  0x42, 0x69, 0x61, 0x73, 0x41, 0x64, 0x64, 0x2f, 0x52, 0x65, 0x61, 0x64, 0x56, 0x61, 0x72, 0x69,
  0x61, 0x62, 0x6c, 0x65, 0x4f, 0x70, 0x00, 0x00, 0x04, 0x00, 0x00, 0x00, 0x01, 0x00, 0x00, 0x00,
  0x20, 0x00, 0x00, 0x00, 0x20, 0x00, 0x00, 0x00, 0x20, 0x00, 0x00, 0x00, 0x2a, 0xf3, 0xff, 0xff,
  0x00, 0x00, 0x00, 0x01, 0x18, 0x00, 0x00, 0x00, 0x28, 0x00, 0x00, 0x00, 0x44, 0x00, 0x00, 0x00,
  0x10, 0x00, 0x00, 0x00, 0x00, 0x00, 0x00, 0x09, 0x60, 0x00, 0x00, 0x00, 0x04, 0x00, 0x00, 0x00,
  0xff, 0xff, 0xff, 0xff, 0x20, 0x00, 0x00, 0x00, 0x20, 0x00, 0x00, 0x00, 0x10, 0x00, 0x00, 0x00,
  0x14, 0xf3, 0xff, 0xff, 0x08, 0x00, 0x00, 0x00, 0x10, 0x00, 0x00, 0x00, 0x01, 0x00, 0x00, 0x00,
  0x80, 0xff, 0xff, 0xff, 0xff, 0xff, 0xff, 0xff, 0x01, 0x00, 0x00, 0x00, 0xbf, 0x18, 0xc5, 0x3c,
  0x22, 0x00, 0x00, 0x00, 0x73, 0x65, 0x71, 0x75, 0x65, 0x6e, 0x74, 0x69, 0x61, 0x6c, 0x2f, 0x6d,
  0x61, 0x78, 0x5f, 0x70, 0x6f, 0x6f, 0x6c, 0x69, 0x6e, 0x67, 0x32, 0x64, 0x5f, 0x31, 0x2f, 0x4d,
  0x61, 0x78, 0x50, 0x6f, 0x6f, 0x6c, 0x00, 0x00, 0x04, 0x00, 0x00, 0x00, 0x01, 0x00, 0x00, 0x00,
  0x20, 0x00, 0x00, 0x00, 0x20, 0x00, 0x00, 0x00, 0x10, 0x00, 0x00, 0x00, 0xba, 0xf3, 0xff, 0xff,
  0x00, 0x00, 0x00, 0x01, 0x18, 0x00, 0x00, 0x00, 0x28, 0x00, 0x00, 0x00, 0x44, 0x00, 0x00, 0x00,
  0x0f, 0x00, 0x00, 0x00, 0x00, 0x00, 0x00, 0x09, 0xb8, 0x00, 0x00, 0x00, 0x04, 0x00, 0x00, 0x00,
  0xff, 0xff, 0xff, 0xff, 0x40, 0x00, 0x00, 0x00, 0x40, 0x00, 0x00, 0x00, 0x10, 0x00, 0x00, 0x00,
  0xa4, 0xf3, 0xff, 0xff, 0x08, 0x00, 0x00, 0x00, 0x10, 0x00, 0x00, 0x00, 0x01, 0x00, 0x00, 0x00,
  0x80, 0xff, 0xff, 0xff, 0xff, 0xff, 0xff, 0xff, 0x01, 0x00, 0x00, 0x00, 0xbf, 0x18, 0xc5, 0x3c,
  0x7a, 0x00, 0x00, 0x00, 0x73, 0x65, 0x71, 0x75, 0x65, 0x6e, 0x74, 0x69, 0x61, 0x6c, 0x2f, 0x63,
  0x6f, 0x6e, 0x76, 0x32, 0x64, 0x5f, 0x31, 0x2f, 0x52, 0x65, 0x6c, 0x75, 0x3b, 0x73, 0x65, 0x71,
  0x75, 0x65, 0x6e, 0x74, 0x69, 0x61, 0x6c, 0x2f, 0x63, 0x6f, 0x6e, 0x76, 0x32, 0x64, 0x5f, 0x31,
  0x2f, 0x42, 0x69, 0x61, 0x73, 0x41, 0x64, 0x64, 0x3b, 0x73, 0x65, 0x71, 0x75, 0x65, 0x6e, 0x74,
  0x69, 0x61, 0x6c, 0x2f, 0x63, 0x6f, 0x6e, 0x76, 0x32, 0x64, 0x5f, 0x31, 0x2f, 0x43, 0x6f, 0x6e,
  0x76, 0x32, 0x44, 0x3b, 0x73, 0x65, 0x71, 0x75, 0x65, 0x6e, 0x74, 0x69, 0x61, 0x6c, 0x2f, 0x63,
  0x6f, 0x6e, 0x76, 0x32, 0x64, 0x5f, 0x31, 0x2f, 0x42, 0x69, 0x61, 0x73, 0x41, 0x64, 0x64, 0x2f,
  0x52, 0x65, 0x61, 0x64, 0x56, 0x61, 0x72, 0x69, 0x61, 0x62, 0x6c, 0x65, 0x4f, 0x70, 0x00, 0x00,
  0x04, 0x00, 0x00, 0x00, 0x01, 0x00, 0x00, 0x00, 0x40, 0x00, 0x00, 0x00, 0x40, 0x00, 0x00, 0x00,
  0x10, 0x00, 0x00, 0x00, 0xa2, 0xf4, 0xff, 0xff, 0x00, 0x00, 0x00, 0x01, 0x18, 0x00, 0x00, 0x00,
  0x28, 0x00, 0x00, 0x00, 0x44, 0x00, 0x00, 0x00, 0x0e, 0x00, 0x00, 0x00, 0x00, 0x00, 0x00, 0x09,
  0x60, 0x00, 0x00, 0x00, 0x04, 0x00, 0x00, 0x00, 0xff, 0xff, 0xff, 0xff, 0x40, 0x00, 0x00, 0x00,
  0x40, 0x00, 0x00, 0x00, 0x08, 0x00, 0x00, 0x00, 0x8c, 0xf4, 0xff, 0xff, 0x08, 0x00, 0x00, 0x00,
  0x10, 0x00, 0x00, 0x00, 0x01, 0x00, 0x00, 0x00, 0x80, 0xff, 0xff, 0xff, 0xff, 0xff, 0xff, 0xff,
  0x01, 0x00, 0x00, 0x00, 0x30, 0x93, 0x9f, 0x3c, 0x20, 0x00, 0x00, 0x00, 0x73, 0x65, 0x71, 0x75,
  0x65, 0x6e, 0x74, 0x69, 0x61, 0x6c, 0x2f, 0x6d, 0x61, 0x78, 0x5f, 0x70, 0x6f, 0x6f, 0x6c, 0x69,
  0x6e, 0x67, 0x32, 0x64, 0x2f, 0x4d, 0x61, 0x78, 0x50, 0x6f, 0x6f, 0x6c, 0x00, 0x00, 0x00, 0x00,
  0x04, 0x00, 0x00, 0x00, 0x01, 0x00, 0x00, 0x00, 0x40, 0x00, 0x00, 0x00, 0x40, 0x00, 0x00, 0x00,
  0x08, 0x00, 0x00, 0x00, 0x32, 0xf5, 0xff, 0xff, 0x00, 0x00, 0x00, 0x01, 0x18, 0x00, 0x00, 0x00,
  0x28, 0x00, 0x00, 0x00, 0x44, 0x00, 0x00, 0x00, 0x0d, 0x00, 0x00, 0x00, 0x00, 0x00, 0x00, 0x09,
  0xb0, 0x00, 0x00, 0x00, 0x04, 0x00, 0x00, 0x00, 0xff, 0xff, 0xff, 0xff, 0x80, 0x00, 0x00, 0x00,
  0x80, 0x00, 0x00, 0x00, 0x08, 0x00, 0x00, 0x00, 0x1c, 0xf5, 0xff, 0xff, 0x08, 0x00, 0x00, 0x00,
  0x10, 0x00, 0x00, 0x00, 0x01, 0x00, 0x00, 0x00, 0x80, 0xff, 0xff, 0xff, 0xff, 0xff, 0xff, 0xff,
  0x01, 0x00, 0x00, 0x00, 0x30, 0x93, 0x9f, 0x3c, 0x72, 0x00, 0x00, 0x00, 0x73, 0x65, 0x71, 0x75,
  0x65, 0x6e, 0x74, 0x69, 0x61, 0x6c, 0x2f, 0x63, 0x6f, 0x6e, 0x76, 0x32, 0x64, 0x2f, 0x52, 0x65,
  0x6c, 0x75, 0x3b, 0x73, 0x65, 0x71, 0x75, 0x65, 0x6e, 0x74, 0x69, 0x61, 0x6c, 0x2f, 0x63, 0x6f,
  0x6e, 0x76, 0x32, 0x64, 0x2f, 0x42, 0x69, 0x61, 0x73, 0x41, 0x64, 0x64, 0x3b, 0x73, 0x65, 0x71,
  0x75, 0x65, 0x6e, 0x74, 0x69, 0x61, 0x6c, 0x2f, 0x63, 0x6f, 0x6e, 0x76, 0x32, 0x64, 0x2f, 0x43,
  0x6f, 0x6e, 0x76, 0x32, 0x44, 0x3b, 0x73, 0x65, 0x71, 0x75, 0x65, 0x6e, 0x74, 0x69, 0x61, 0x6c,
  0x2f, 0x63, 0x6f, 0x6e, 0x76, 0x32, 0x64, 0x2f, 0x42, 0x69, 0x61, 0x73, 0x41, 0x64, 0x64, 0x2f,
  0x52, 0x65, 0x61, 0x64, 0x56, 0x61, 0x72, 0x69, 0x61, 0x62, 0x6c, 0x65, 0x4f, 0x70, 0x00, 0x00,
  0x04, 0x00, 0x00, 0x00, 0x01, 0x00, 0x00, 0x00, 0x80, 0x00, 0x00, 0x00, 0x80, 0x00, 0x00, 0x00,
  0x08, 0x00, 0x00, 0x00, 0x96, 0xf6, 0xff, 0xff, 0x00, 0x00, 0x00, 0x01, 0x14, 0x00, 0x00, 0x00,
  0x88, 0x00, 0x00, 0x00, 0x0c, 0x00, 0x00, 0x00, 0x00, 0x00, 0x00, 0x09, 0x9c, 0x00, 0x00, 0x00,
  0xe4, 0xf5, 0xff, 0xff, 0x08, 0x00, 0x00, 0x00, 0x4c, 0x00, 0x00, 0x00, 0x08, 0x00, 0x00, 0x00,
  0x00, 0x00, 0x00, 0x00, 0x00, 0x00, 0x00, 0x00, 0x00, 0x00, 0x00, 0x00, 0x00, 0x00, 0x00, 0x00,
  0x00, 0x00, 0x00, 0x00, 0x00, 0x00, 0x00, 0x00, 0x00, 0x00, 0x00, 0x00, 0x00, 0x00, 0x00, 0x00,
  0x00, 0x00, 0x00, 0x00, 0x00, 0x00, 0x00, 0x00, 0x00, 0x00, 0x00, 0x00, 0x00, 0x00, 0x00, 0x00,
  0x00, 0x00, 0x00, 0x00, 0x00, 0x00, 0x00, 0x00, 0x00, 0x00, 0x00, 0x00, 0x00, 0x00, 0x00, 0x00,
  0x00, 0x00, 0x00, 0x00, 0x08, 0x00, 0x00, 0x00, 0xd3, 0x7d, 0x11, 0x3b, 0xee, 0x8e, 0x13, 0x3b,
  0x28, 0x34, 0xd0, 0x3a, 0x27, 0x4c, 0x01, 0x3b, 0x91, 0x73, 0x11, 0x3b, 0xdc, 0x38, 0x03, 0x3b,
  0x6c, 0x31, 0x15, 0x3b, 0xfd, 0x81, 0x12, 0x3b, 0x18, 0x00, 0x00, 0x00, 0x73, 0x65, 0x71, 0x75,
  0x65, 0x6e, 0x74, 0x69, 0x61, 0x6c, 0x2f, 0x63, 0x6f, 0x6e, 0x76, 0x32, 0x64, 0x2f, 0x43, 0x6f,
  0x6e, 0x76, 0x32, 0x44, 0x00, 0x00, 0x00, 0x00, 0x04, 0x00, 0x00, 0x00, 0x08, 0x00, 0x00, 0x00,
  0x03, 0x00, 0x00, 0x00, 0x03, 0x00, 0x00, 0x00, 0x03, 0x00, 0x00, 0x00, 0x5e, 0xf7, 0xff, 0xff,
  0x00, 0x00, 0x00, 0x01, 0x14, 0x00, 0x00, 0x00, 0x84, 0x00, 0x00, 0x00, 0x0b, 0x00, 0x00, 0x00,
  0x00, 0x00, 0x00, 0x02, 0xa8, 0x00, 0x00, 0x00, 0xac, 0xf6, 0xff, 0xff, 0x08, 0x00, 0x00, 0x00,
  0x48, 0x00, 0x00, 0x00, 0x08, 0x00, 0x00, 0x00, 0x00, 0x00, 0x00, 0x00, 0x00, 0x00, 0x00, 0x00,
  0x00, 0x00, 0x00, 0x00, 0x00, 0x00, 0x00, 0x00, 0x00, 0x00, 0x00, 0x00, 0x00, 0x00, 0x00, 0x00,
  0x00, 0x00, 0x00, 0x00, 0x00, 0x00, 0x00, 0x00, 0x00, 0x00, 0x00, 0x00, 0x00, 0x00, 0x00, 0x00,
  0x00, 0x00, 0x00, 0x00, 0x00, 0x00, 0x00, 0x00, 0x00, 0x00, 0x00, 0x00, 0x00, 0x00, 0x00, 0x00,
  0x00, 0x00, 0x00, 0x00, 0x00, 0x00, 0x00, 0x00, 0x08, 0x00, 0x00, 0x00, 0x65, 0xd1, 0xb2, 0x38,
  0xb3, 0x5b, 0xb5, 0x38, 0x26, 0xe5, 0x7f, 0x38, 0x1c, 0xea, 0x9e, 0x38, 0xca, 0xc4, 0xb2, 0x38,
  0xad, 0x47, 0xa1, 0x38, 0x0d, 0x5e, 0xb7, 0x38, 0x27, 0x11, 0xb4, 0x38, 0x28, 0x00, 0x00, 0x00,
  0x73, 0x65, 0x71, 0x75, 0x65, 0x6e, 0x74, 0x69, 0x61, 0x6c, 0x2f, 0x63, 0x6f, 0x6e, 0x76, 0x32,
  0x64, 0x2f, 0x42, 0x69, 0x61, 0x73, 0x41, 0x64, 0x64, 0x2f, 0x52, 0x65, 0x61, 0x64, 0x56, 0x61,
  0x72, 0x69, 0x61, 0x62, 0x6c, 0x65, 0x4f, 0x70, 0x00, 0x00, 0x00, 0x00, 0x01, 0x00, 0x00, 0x00,
  0x08, 0x00, 0x00, 0x00, 0x26, 0xf8, 0xff, 0xff, 0x00, 0x00, 0x00, 0x01, 0x14, 0x00, 0x00, 0x00,
  0xe8, 0x00, 0x00, 0x00, 0x0a, 0x00, 0x00, 0x00, 0x00, 0x00, 0x00, 0x09, 0xfc, 0x00, 0x00, 0x00,
  0x74, 0xf7, 0xff, 0xff, 0x08, 0x00, 0x00, 0x00, 0x8c, 0x00, 0x00, 0x00, 0x10, 0x00, 0x00, 0x00,
  0x00, 0x00, 0x00, 0x00, 0x00, 0x00, 0x00, 0x00, 0x00, 0x00, 0x00, 0x00, 0x00, 0x00, 0x00, 0x00,
  0x00, 0x00, 0x00, 0x00, 0x00, 0x00, 0x00, 0x00, 0x00, 0x00, 0x00, 0x00, 0x00, 0x00, 0x00, 0x00,
  0x00, 0x00, 0x00, 0x00, 0x00, 0x00, 0x00, 0x00, 0x00, 0x00, 0x00, 0x00, 0x00, 0x00, 0x00, 0x00,
  0x00, 0x00, 0x00, 0x00, 0x00, 0x00, 0x00, 0x00, 0x00, 0x00, 0x00, 0x00, 0x00, 0x00, 0x00, 0x00,
  0x00, 0x00, 0x00, 0x00, 0x00, 0x00, 0x00, 0x00, 0x00, 0x00, 0x00, 0x00, 0x00, 0x00, 0x00, 0x00,
  0x00, 0x00, 0x00, 0x00, 0x00, 0x00, 0x00, 0x00, 0x00, 0x00, 0x00, 0x00, 0x00, 0x00, 0x00, 0x00,
  0x00, 0x00, 0x00, 0x00, 0x00, 0x00, 0x00, 0x00, 0x00, 0x00, 0x00, 0x00, 0x00, 0x00, 0x00, 0x00,
  0x00, 0x00, 0x00, 0x00, 0x00, 0x00, 0x00, 0x00, 0x00, 0x00, 0x00, 0x00, 0x00, 0x00, 0x00, 0x00,
  0x00, 0x00, 0x00, 0x00, 0x10, 0x00, 0x00, 0x00, 0x84, 0x65, 0xd6, 0x3a, 0xbe, 0xda, 0xc9, 0x3a,
  0x1e, 0x91, 0xc7, 0x3a, 0x09, 0x8a, 0xae, 0x3a, 0x0c, 0x10, 0xbd, 0x3a, 0x5f, 0xe7, 0xb8, 0x3a,
  0xf2, 0x6f, 0xc8, 0x3a, 0xbf, 0xe9, 0xad, 0x3a, 0x93, 0x0d, 0xad, 0x3a, 0xca, 0xc4, 0xd7, 0x3a,
  0x94, 0x72, 0xef, 0x3a, 0xff, 0x3a, 0xbc, 0x3a, 0x20, 0xe5, 0xc0, 0x3a, 0x49, 0x43, 0xaf, 0x3a,
  0x7b, 0x13, 0xce, 0x3a, 0x2d, 0x46, 0xc5, 0x3a, 0x1a, 0x00, 0x00, 0x00, 0x73, 0x65, 0x71, 0x75,
  0x65, 0x6e, 0x74, 0x69, 0x61, 0x6c, 0x2f, 0x63, 0x6f, 0x6e, 0x76, 0x32, 0x64, 0x5f, 0x31, 0x2f,
  0x43, 0x6f, 0x6e, 0x76, 0x32, 0x44, 0x00, 0x00, 0x04, 0x00, 0x00, 0x00, 0x10, 0x00, 0x00, 0x00,
  0x03, 0x00, 0x00, 0x00, 0x03, 0x00, 0x00, 0x00, 0x08, 0x00, 0x00, 0x00, 0x4e, 0xf9, 0xff, 0xff,
  0x00, 0x00, 0x00, 0x01, 0x14, 0x00, 0x00, 0x00, 0xe4, 0x00, 0x00, 0x00, 0x09, 0x00, 0x00, 0x00,
  0x00, 0x00, 0x00, 0x02, 0x08, 0x01, 0x00, 0x00, 0x9c, 0xf8, 0xff, 0xff, 0x08, 0x00, 0x00, 0x00,
  0x88, 0x00, 0x00, 0x00, 0x10, 0x00, 0x00, 0x00, 0x00, 0x00, 0x00, 0x00, 0x00, 0x00, 0x00, 0x00,
  0x00, 0x00, 0x00, 0x00, 0x00, 0x00, 0x00, 0x00, 0x00, 0x00, 0x00, 0x00, 0x00, 0x00, 0x00, 0x00,
  0x00, 0x00, 0x00, 0x00, 0x00, 0x00, 0x00, 0x00, 0x00, 0x00, 0x00, 0x00, 0x00, 0x00, 0x00, 0x00,
  0x00, 0x00, 0x00, 0x00, 0x00, 0x00, 0x00, 0x00, 0x00, 0x00, 0x00, 0x00, 0x00, 0x00, 0x00, 0x00,
  0x00, 0x00, 0x00, 0x00, 0x00, 0x00, 0x00, 0x00, 0x00, 0x00, 0x00, 0x00, 0x00, 0x00, 0x00, 0x00,
  0x00, 0x00, 0x00, 0x00, 0x00, 0x00, 0x00, 0x00, 0x00, 0x00, 0x00, 0x00, 0x00, 0x00, 0x00, 0x00,
  0x00, 0x00, 0x00, 0x00, 0x00, 0x00, 0x00, 0x00, 0x00, 0x00, 0x00, 0x00, 0x00, 0x00, 0x00, 0x00,
  0x00, 0x00, 0x00, 0x00, 0x00, 0x00, 0x00, 0x00, 0x00, 0x00, 0x00, 0x00, 0x00, 0x00, 0x00, 0x00,
  0x00, 0x00, 0x00, 0x00, 0x00, 0x00, 0x00, 0x00, 0x10, 0x00, 0x00, 0x00, 0x51, 0xa4, 0x05, 0x38,
  0xd5, 0xa5, 0xfb, 0x37, 0xbf, 0xcb, 0xf8, 0x37, 0x2b, 0x98, 0xd9, 0x37, 0x56, 0xb3, 0xeb, 0x37,
  0x07, 0x84, 0xe6, 0x37, 0x8a, 0xe1, 0xf9, 0x37, 0x57, 0xd0, 0xd8, 0x37, 0xdb, 0xbd, 0xd7, 0x37,
  0x48, 0x7f, 0x06, 0x38, 0xd6, 0x41, 0x15, 0x38, 0xbb, 0xa9, 0xea, 0x37, 0x6d, 0x7a, 0xf0, 0x37,
  0x1e, 0x7f, 0xda, 0x37, 0x95, 0x74, 0x00, 0x38, 0x04, 0xf0, 0xf5, 0x37, 0x2a, 0x00, 0x00, 0x00,
  0x73, 0x65, 0x71, 0x75, 0x65, 0x6e, 0x74, 0x69, 0x61, 0x6c, 0x2f, 0x63, 0x6f, 0x6e, 0x76, 0x32,
  0x64, 0x5f, 0x31, 0x2f, 0x42, 0x69, 0x61, 0x73, 0x41, 0x64, 0x64, 0x2f, 0x52, 0x65, 0x61, 0x64,
  0x56, 0x61, 0x72, 0x69, 0x61, 0x62, 0x6c, 0x65, 0x4f, 0x70, 0x00, 0x00, 0x01, 0x00, 0x00, 0x00,
  0x10, 0x00, 0x00, 0x00, 0x76, 0xfa, 0xff, 0xff, 0x00, 0x00, 0x00, 0x01, 0x14, 0x00, 0x00, 0x00,
  0xa8, 0x01, 0x00, 0x00, 0x08, 0x00, 0x00, 0x00, 0x00, 0x00, 0x00, 0x09, 0xbc, 0x01, 0x00, 0x00,
  0xc4, 0xf9, 0xff, 0xff, 0x08, 0x00, 0x00, 0x00, 0x0c, 0x01, 0x00, 0x00, 0x20, 0x00, 0x00, 0x00,
  0x00, 0x00, 0x00, 0x00, 0x00, 0x00, 0x00, 0x00, 0x00, 0x00, 0x00, 0x00, 0x00, 0x00, 0x00, 0x00,
  0x00, 0x00, 0x00, 0x00, 0x00, 0x00, 0x00, 0x00, 0x00, 0x00, 0x00, 0x00, 0x00, 0x00, 0x00, 0x00,
  0x00, 0x00, 0x00, 0x00, 0x00, 0x00, 0x00, 0x00, 0x00, 0x00, 0x00, 0x00, 0x00, 0x00, 0x00, 0x00,
  0x00, 0x00, 0x00, 0x00, 0x00, 0x00, 0x00, 0x00, 0x00, 0x00, 0x00, 0x00, 0x00, 0x00, 0x00, 0x00,
  0x00, 0x00, 0x00, 0x00, 0x00, 0x00, 0x00, 0x00, 0x00, 0x00, 0x00, 0x00, 0x00, 0x00, 0x00, 0x00,
  0x00, 0x00, 0x00, 0x00, 0x00, 0x00, 0x00, 0x00, 0x00, 0x00, 0x00, 0x00, 0x00, 0x00, 0x00, 0x00,
  0x00, 0x00, 0x00, 0x00, 0x00, 0x00, 0x00, 0x00, 0x00, 0x00, 0x00, 0x00, 0x00, 0x00, 0x00, 0x00,
  0x00, 0x00, 0x00, 0x00, 0x00, 0x00, 0x00, 0x00, 0x00, 0x00, 0x00, 0x00, 0x00, 0x00, 0x00, 0x00,
  0x00, 0x00, 0x00, 0x00, 0x00, 0x00, 0x00, 0x00, 0x00, 0x00, 0x00, 0x00, 0x00, 0x00, 0x00, 0x00,
  0x00, 0x00, 0x00, 0x00, 0x00, 0x00, 0x00, 0x00, 0x00, 0x00, 0x00, 0x00, 0x00, 0x00, 0x00, 0x00,
  0x00, 0x00, 0x00, 0x00, 0x00, 0x00, 0x00, 0x00, 0x00, 0x00, 0x00, 0x00, 0x00, 0x00, 0x00, 0x00,
  0x00, 0x00, 0x00, 0x00, 0x00, 0x00, 0x00, 0x00, 0x00, 0x00, 0x00, 0x00, 0x00, 0x00, 0x00, 0x00,
  0x00, 0x00, 0x00, 0x00, 0x00, 0x00, 0x00, 0x00, 0x00, 0x00, 0x00, 0x00, 0x00, 0x00, 0x00, 0x00,
  0x00, 0x00, 0x00, 0x00, 0x00, 0x00, 0x00, 0x00, 0x00, 0x00, 0x00, 0x00, 0x00, 0x00, 0x00, 0x00,
  0x00, 0x00, 0x00, 0x00, 0x00, 0x00, 0x00, 0x00, 0x00, 0x00, 0x00, 0x00, 0x00, 0x00, 0x00, 0x00,
  0x00, 0x00, 0x00, 0x00, 0x00, 0x00, 0x00, 0x00, 0x00, 0x00, 0x00, 0x00, 0x00, 0x00, 0x00, 0x00,
  0x00, 0x00, 0x00, 0x00, 0x20, 0x00, 0x00, 0x00, 0xa6, 0x23, 0xb6, 0x3a, 0xe8, 0x07, 0x84, 0x3a,
  0xe9, 0x17, 0x6b, 0x3a, 0x39, 0x01, 0x89, 0x3a, 0x4a, 0x1d, 0x89, 0x3a, 0x24, 0x4b, 0x8f, 0x3a,
  0x1c, 0x55, 0x9a, 0x3a, 0x50, 0xf6, 0x8a, 0x3a, 0x31, 0xad, 0x7c, 0x3a, 0xd8, 0xc2, 0xb7, 0x3a,
  0x29, 0x8c, 0x84, 0x3a, 0x11, 0xb1, 0x90, 0x3a, 0x6b, 0x83, 0x97, 0x3a, 0xb3, 0x9a, 0x8a, 0x3a,
  0x1d, 0x01, 0x81, 0x3a, 0x6d, 0x48, 0x85, 0x3a, 0x9b, 0xf7, 0x81, 0x3a, 0x89, 0xb2, 0x88, 0x3a,
  0xd9, 0xdd, 0x88, 0x3a, 0xbc, 0x37, 0x87, 0x3a, 0x8e, 0xb8, 0x88, 0x3a, 0x66, 0xac, 0x81, 0x3a,
  0x49, 0x8f, 0x7e, 0x3a, 0x90, 0xf8, 0x9d, 0x3a, 0x28, 0xbc, 0x81, 0x3a, 0x0c, 0xa0, 0x83, 0x3a,
  0xb9, 0x90, 0x7c, 0x3a, 0x37, 0x43, 0x81, 0x3a, 0xe3, 0x7e, 0x9b, 0x3a, 0x7e, 0x44, 0x86, 0x3a,
  0xe2, 0x6f, 0x85, 0x3a, 0xc4, 0x15, 0x83, 0x3a, 0x1a, 0x00, 0x00, 0x00, 0x73, 0x65, 0x71, 0x75,
  0x65, 0x6e, 0x74, 0x69, 0x61, 0x6c, 0x2f, 0x63, 0x6f, 0x6e, 0x76, 0x32, 0x64, 0x5f, 0x32, 0x2f,
  0x43, 0x6f, 0x6e, 0x76, 0x32, 0x44, 0x00, 0x00, 0x04, 0x00, 0x00, 0x00, 0x20, 0x00, 0x00, 0x00,
  0x03, 0x00, 0x00, 0x00, 0x03, 0x00, 0x00, 0x00, 0x10, 0x00, 0x00, 0x00, 0x5e, 0xfc, 0xff, 0xff,
  0x00, 0x00, 0x00, 0x01, 0x14, 0x00, 0x00, 0x00, 0xa4, 0x01, 0x00, 0x00, 0x07, 0x00, 0x00, 0x00,
  0x00, 0x00, 0x00, 0x02, 0xc8, 0x01, 0x00, 0x00, 0xac, 0xfb, 0xff, 0xff, 0x08, 0x00, 0x00, 0x00,
  0x08, 0x01, 0x00, 0x00, 0x20, 0x00, 0x00, 0x00, 0x00, 0x00, 0x00, 0x00, 0x00, 0x00, 0x00, 0x00,
  0x00, 0x00, 0x00, 0x00, 0x00, 0x00, 0x00, 0x00, 0x00, 0x00, 0x00, 0x00, 0x00, 0x00, 0x00, 0x00,
  0x00, 0x00, 0x00, 0x00, 0x00, 0x00, 0x00, 0x00, 0x00, 0x00, 0x00, 0x00, 0x00, 0x00, 0x00, 0x00,
  0x00, 0x00, 0x00, 0x00, 0x00, 0x00, 0x00, 0x00, 0x00, 0x00, 0x00, 0x00, 0x00, 0x00, 0x00, 0x00,
  0x00, 0x00, 0x00, 0x00, 0x00, 0x00, 0x00, 0x00, 0x00, 0x00, 0x00, 0x00, 0x00, 0x00, 0x00, 0x00,
  0x00, 0x00, 0x00, 0x00, 0x00, 0x00, 0x00, 0x00, 0x00, 0x00, 0x00, 0x00, 0x00, 0x00, 0x00, 0x00,
  0x00, 0x00, 0x00, 0x00, 0x00, 0x00, 0x00, 0x00, 0x00, 0x00, 0x00, 0x00, 0x00, 0x00, 0x00, 0x00,
  0x00, 0x00, 0x00, 0x00, 0x00, 0x00, 0x00, 0x00, 0x00, 0x00, 0x00, 0x00, 0x00, 0x00, 0x00, 0x00,
  0x00, 0x00, 0x00, 0x00, 0x00, 0x00, 0x00, 0x00, 0x00, 0x00, 0x00, 0x00, 0x00, 0x00, 0x00, 0x00,
  0x00, 0x00, 0x00, 0x00, 0x00, 0x00, 0x00, 0x00, 0x00, 0x00, 0x00, 0x00, 0x00, 0x00, 0x00, 0x00,
  0x00, 0x00, 0x00, 0x00, 0x00, 0x00, 0x00, 0x00, 0x00, 0x00, 0x00, 0x00, 0x00, 0x00, 0x00, 0x00,
  0x00, 0x00, 0x00, 0x00, 0x00, 0x00, 0x00, 0x00, 0x00, 0x00, 0x00, 0x00, 0x00, 0x00, 0x00, 0x00,
  0x00, 0x00, 0x00, 0x00, 0x00, 0x00, 0x00, 0x00, 0x00, 0x00, 0x00, 0x00, 0x00, 0x00, 0x00, 0x00,
  0x00, 0x00, 0x00, 0x00, 0x00, 0x00, 0x00, 0x00, 0x00, 0x00, 0x00, 0x00, 0x00, 0x00, 0x00, 0x00,
  0x00, 0x00, 0x00, 0x00, 0x00, 0x00, 0x00, 0x00, 0x00, 0x00, 0x00, 0x00, 0x00, 0x00, 0x00, 0x00,
  0x00, 0x00, 0x00, 0x00, 0x00, 0x00, 0x00, 0x00, 0x00, 0x00, 0x00, 0x00, 0x00, 0x00, 0x00, 0x00,
  0x00, 0x00, 0x00, 0x00, 0x00, 0x00, 0x00, 0x00, 0x20, 0x00, 0x00, 0x00, 0x0a, 0x3b, 0x0c, 0x38,
  0xb2, 0x4d, 0xcb, 0x37, 0x20, 0x00, 0xb5, 0x37, 0x5e, 0xf6, 0xd2, 0x37, 0x96, 0x21, 0xd3, 0x37,
  0x59, 0xa5, 0xdc, 0x37, 0xd3, 0xa4, 0xed, 0x37, 0xf5, 0xf9, 0xd5, 0x37, 0xb3, 0x89, 0xc2, 0x37,
  0xb4, 0x7a, 0x0d, 0x38, 0x57, 0x19, 0xcc, 0x37, 0x7d, 0xcc, 0xde, 0x37, 0x8d, 0x4d, 0xe9, 0x37,
  0xe3, 0x6c, 0xd5, 0x37, 0xa7, 0xa4, 0xc6, 0x37, 0x3c, 0x3b, 0xcd, 0x37, 0x35, 0x20, 0xc8, 0x37,
  0x34, 0x7d, 0xd2, 0x37, 0xe6, 0xbf, 0xd2, 0x37, 0xec, 0x35, 0xd0, 0x37, 0x79, 0x86, 0xd2, 0x37,
  0x67, 0xac, 0xc7, 0x37, 0xdf, 0xfc, 0xc3, 0x37, 0x18, 0x3f, 0xf3, 0x37, 0xaa, 0xc4, 0xc7, 0x37,
  0xc5, 0xad, 0xca, 0x37, 0xc8, 0x73, 0xc2, 0x37, 0x70, 0x0a, 0xc7, 0x37, 0x59, 0x6f, 0xef, 0x37,
  0x5f, 0xbf, 0xce, 0x37, 0xfe, 0x77, 0xcd, 0x37, 0xd7, 0xd8, 0xc9, 0x37, 0x2a, 0x00, 0x00, 0x00,
  0x73, 0x65, 0x71, 0x75, 0x65, 0x6e, 0x74, 0x69, 0x61, 0x6c, 0x2f, 0x63, 0x6f, 0x6e, 0x76, 0x32,
  0x64, 0x5f, 0x32, 0x2f, 0x42, 0x69, 0x61, 0x73, 0x41, 0x64, 0x64, 0x2f, 0x52, 0x65, 0x61, 0x64,
  0x56, 0x61, 0x72, 0x69, 0x61, 0x62, 0x6c, 0x65, 0x4f, 0x70, 0x00, 0x00, 0x01, 0x00, 0x00, 0x00,
  0x20, 0x00, 0x00, 0x00, 0x46, 0xfe, 0xff, 0xff, 0x00, 0x00, 0x00, 0x01, 0x14, 0x00, 0x00, 0x00,
  0x34, 0x00, 0x00, 0x00, 0x06, 0x00, 0x00, 0x00, 0x00, 0x00, 0x00, 0x09, 0x44, 0x00, 0x00, 0x00,
  0x94, 0xfd, 0xff, 0xff, 0x08, 0x00, 0x00, 0x00, 0x14, 0x00, 0x00, 0x00, 0x01, 0x00, 0x00, 0x00,
  0x00, 0x00, 0x00, 0x00, 0x00, 0x00, 0x00, 0x00, 0x00, 0x00, 0x00, 0x00, 0x01, 0x00, 0x00, 0x00,
  0xb8, 0xad, 0x58, 0x3b, 0x17, 0x00, 0x00, 0x00, 0x73, 0x65, 0x71, 0x75, 0x65, 0x6e, 0x74, 0x69,
  0x61, 0x6c, 0x2f, 0x64, 0x65, 0x6e, 0x73, 0x65, 0x2f, 0x4d, 0x61, 0x74, 0x4d, 0x75, 0x6c, 0x00,
  0x02, 0x00, 0x00, 0x00, 0x10, 0x00, 0x00, 0x00, 0x20, 0x00, 0x00, 0x00, 0xae, 0xfe, 0xff, 0xff,
  0x00, 0x00, 0x00, 0x01, 0x14, 0x00, 0x00, 0x00, 0x30, 0x00, 0x00, 0x00, 0x05, 0x00, 0x00, 0x00,
  0x00, 0x00, 0x00, 0x02, 0x50, 0x00, 0x00, 0x00, 0xfc, 0xfd, 0xff, 0xff, 0x08, 0x00, 0x00, 0x00,
  0x10, 0x00, 0x00, 0x00, 0x01, 0x00, 0x00, 0x00, 0x00, 0x00, 0x00, 0x00, 0x00, 0x00, 0x00, 0x00,
  0x01, 0x00, 0x00, 0x00, 0xb4, 0x92, 0x72, 0x39, 0x27, 0x00, 0x00, 0x00, 0x73, 0x65, 0x71, 0x75,
  0x65, 0x6e, 0x74, 0x69, 0x61, 0x6c, 0x2f, 0x64, 0x65, 0x6e, 0x73, 0x65, 0x2f, 0x42, 0x69, 0x61,
  0x73, 0x41, 0x64, 0x64, 0x2f, 0x52, 0x65, 0x61, 0x64, 0x56, 0x61, 0x72, 0x69, 0x61, 0x62, 0x6c,
  0x65, 0x4f, 0x70, 0x00, 0x01, 0x00, 0x00, 0x00, 0x10, 0x00, 0x00, 0x00, 0x1e, 0xff, 0xff, 0xff,
  0x00, 0x00, 0x00, 0x01, 0x14, 0x00, 0x00, 0x00, 0x30, 0x00, 0x00, 0x00, 0x04, 0x00, 0x00, 0x00,
  0x00, 0x00, 0x00, 0x09, 0x44, 0x00, 0x00, 0x00, 0x6c, 0xfe, 0xff, 0xff, 0x08, 0x00, 0x00, 0x00,
  0x10, 0x00, 0x00, 0x00, 0x01, 0x00, 0x00, 0x00, 0x00, 0x00, 0x00, 0x00, 0x00, 0x00, 0x00, 0x00,
  0x01, 0x00, 0x00, 0x00, 0x74, 0x08, 0x89, 0x3b, 0x19, 0x00, 0x00, 0x00, 0x73, 0x65, 0x71, 0x75,
  0x65, 0x6e, 0x74, 0x69, 0x61, 0x6c, 0x2f, 0x64, 0x65, 0x6e, 0x73, 0x65, 0x5f, 0x31, 0x2f, 0x4d,
  0x61, 0x74, 0x4d, 0x75, 0x6c, 0x00, 0x00, 0x00, 0x02, 0x00, 0x00, 0x00, 0x06, 0x00, 0x00, 0x00,
  0x10, 0x00, 0x00, 0x00, 0x86, 0xff, 0xff, 0xff, 0x00, 0x00, 0x00, 0x01, 0x14, 0x00, 0x00, 0x00,
  0x34, 0x00, 0x00, 0x00, 0x03, 0x00, 0x00, 0x00, 0x00, 0x00, 0x00, 0x02, 0x58, 0x00, 0x00, 0x00,
  0xd4, 0xfe, 0xff, 0xff, 0x08, 0x00, 0x00, 0x00, 0x14, 0x00, 0x00, 0x00, 0x01, 0x00, 0x00, 0x00,
  0x00, 0x00, 0x00, 0x00, 0x00, 0x00, 0x00, 0x00, 0x00, 0x00, 0x00, 0x00, 0x01, 0x00, 0x00, 0x00,
  0x54, 0x87, 0xab, 0x39, 0x29, 0x00, 0x00, 0x00, 0x73, 0x65, 0x71, 0x75, 0x65, 0x6e, 0x74, 0x69,
  0x61, 0x6c, 0x2f, 0x64, 0x65, 0x6e, 0x73, 0x65, 0x5f, 0x31, 0x2f, 0x42, 0x69, 0x61, 0x73, 0x41,
  0x64, 0x64, 0x2f, 0x52, 0x65, 0x61, 0x64, 0x56, 0x61, 0x72, 0x69, 0x61, 0x62, 0x6c, 0x65, 0x4f,
  0x70, 0x00, 0x00, 0x00, 0x01, 0x00, 0x00, 0x00, 0x06, 0x00, 0x00, 0x00, 0x00, 0x00, 0x16, 0x00,
  0x1c, 0x00, 0x18, 0x00, 0x17, 0x00, 0x10, 0x00, 0x0c, 0x00, 0x08, 0x00, 0x00, 0x00, 0x00, 0x00,
  0x00, 0x00, 0x07, 0x00, 0x16, 0x00, 0x00, 0x00, 0x00, 0x00, 0x00, 0x01, 0x18, 0x00, 0x00, 0x00,
  0x18, 0x00, 0x00, 0x00, 0x02, 0x00, 0x00, 0x00, 0x00, 0x00, 0x00, 0x02, 0x4c, 0x00, 0x00, 0x00,
  0x04, 0x00, 0x04, 0x00, 0x04, 0x00, 0x00, 0x00, 0x3a, 0x00, 0x00, 0x00, 0x73, 0x65, 0x71, 0x75,
  0x65, 0x6e, 0x74, 0x69, 0x61, 0x6c, 0x2f, 0x67, 0x6c, 0x6f, 0x62, 0x61, 0x6c, 0x5f, 0x61, 0x76,
  0x65, 0x72, 0x61, 0x67, 0x65, 0x5f, 0x70, 0x6f, 0x6f, 0x6c, 0x69, 0x6e, 0x67, 0x32, 0x64, 0x2f,
  0x4d, 0x65, 0x61, 0x6e, 0x2f, 0x72, 0x65, 0x64, 0x75, 0x63, 0x74, 0x69, 0x6f, 0x6e, 0x5f, 0x69,
  0x6e, 0x64, 0x69, 0x63, 0x65, 0x73, 0x00, 0x00, 0x01, 0x00, 0x00, 0x00, 0x02, 0x00, 0x00, 0x00,
  0x00, 0x00, 0x16, 0x00, 0x20, 0x00, 0x1c, 0x00, 0x1b, 0x00, 0x14, 0x00, 0x10, 0x00, 0x0c, 0x00,
  0x00, 0x00, 0x00, 0x00, 0x08, 0x00, 0x07, 0x00, 0x16, 0x00, 0x00, 0x00, 0x00, 0x00, 0x00, 0x01,
  0x18, 0x00, 0x00, 0x00, 0x34, 0x00, 0x00, 0x00, 0x50, 0x00, 0x00, 0x00, 0x01, 0x00, 0x00, 0x00,
  0x00, 0x00, 0x00, 0x09, 0x64, 0x00, 0x00, 0x00, 0x04, 0x00, 0x00, 0x00, 0xff, 0xff, 0xff, 0xff,
  0x80, 0x00, 0x00, 0x00, 0x80, 0x00, 0x00, 0x00, 0x03, 0x00, 0x00, 0x00, 0x0c, 0x00, 0x0c, 0x00,
  0x00, 0x00, 0x00, 0x00, 0x08, 0x00, 0x04, 0x00, 0x0c, 0x00, 0x00, 0x00, 0x08, 0x00, 0x00, 0x00,
  0x10, 0x00, 0x00, 0x00, 0x01, 0x00, 0x00, 0x00, 0xfb, 0xff, 0xff, 0xff, 0xff, 0xff, 0xff, 0xff,
  0x01, 0x00, 0x00, 0x00, 0xe0, 0x51, 0x1d, 0x3d, 0x19, 0x00, 0x00, 0x00, 0x73, 0x65, 0x72, 0x76,
  0x69, 0x6e, 0x67, 0x5f, 0x64, 0x65, 0x66, 0x61, 0x75, 0x6c, 0x74, 0x5f, 0x69, 0x6e, 0x70, 0x75,
  0x74, 0x5f, 0x31, 0x3a, 0x30, 0x00, 0x00, 0x00, 0x04, 0x00, 0x00, 0x00, 0x01, 0x00, 0x00, 0x00,
  0x80, 0x00, 0x00, 0x00, 0x80, 0x00, 0x00, 0x00, 0x03, 0x00, 0x00, 0x00, 0x05, 0x00, 0x00, 0x00,
  0x60, 0x00, 0x00, 0x00, 0x40, 0x00, 0x00, 0x00, 0x2c, 0x00, 0x00, 0x00, 0x18, 0x00, 0x00, 0x00,
  0x04, 0x00, 0x00, 0x00, 0xc0, 0xff, 0xff, 0xff, 0x19, 0x00, 0x00, 0x00, 0x02, 0x00, 0x00, 0x00,
  0x00, 0x00, 0x00, 0x19, 0xd0, 0xff, 0xff, 0xff, 0x09, 0x00, 0x00, 0x00, 0x04, 0x00, 0x00, 0x00,
  0x00, 0x00, 0x00, 0x09, 0xe0, 0xff, 0xff, 0xff, 0x28, 0x00, 0x00, 0x00, 0x02, 0x00, 0x00, 0x00,
  0x00, 0x00, 0x00, 0x28, 0xf0, 0xff, 0xff, 0xff, 0x11, 0x00, 0x00, 0x00, 0x02, 0x00, 0x00, 0x00,
  0x00, 0x00, 0x00, 0x11, 0x0c, 0x00, 0x10, 0x00, 0x0f, 0x00, 0x00, 0x00, 0x08, 0x00, 0x04, 0x00,
  0x0c, 0x00, 0x00, 0x00, 0x03, 0x00, 0x00, 0x00, 0x03, 0x00, 0x00, 0x00, 0x00, 0x00, 0x00, 0x03
};

const unsigned int micro_model_len = 12992;

#endif
